#include <cstdint>
#ifdef __has_attribute
#if __has_attribute(aligned)
#define ALN __attribute__((aligned(16)))
#else
#define ALN
#endif
#else
#define ALN
#endif

extern "C" {
  // declare with external linkage
  extern const unsigned char g_model[] ALN;
  extern const unsigned int  g_model_len;
const unsigned char g_model[] ALN = {
  0x20, 0x00, 0x00, 0x00, 0x54, 0x46, 0x4c, 0x33, 0x00, 0x00, 0x00, 0x00, 
  0x14, 0x00, 0x20, 0x00, 0x1c, 0x00, 0x18, 0x00, 0x14, 0x00, 0x10, 0x00, 
  0x0c, 0x00, 0x00, 0x00, 0x08, 0x00, 0x04, 0x00, 0x14, 0x00, 0x00, 0x00, 
  0x1c, 0x00, 0x00, 0x00, 0x98, 0x00, 0x00, 0x00, 0x18, 0x01, 0x00, 0x00, 
  0x70, 0x37, 0x00, 0x00, 0x80, 0x37, 0x00, 0x00, 0xb4, 0x72, 0x00, 0x00, 
  0x03, 0x00, 0x00, 0x00, 0x01, 0x00, 0x00, 0x00, 0x10, 0x00, 0x00, 0x00, 
  0x00, 0x00, 0x0a, 0x00, 0x10, 0x00, 0x0c, 0x00, 0x08, 0x00, 0x04, 0x00, 
  0x0a, 0x00, 0x00, 0x00, 0x0c, 0x00, 0x00, 0x00, 0x1c, 0x00, 0x00, 0x00, 
  0x3c, 0x00, 0x00, 0x00, 0x0f, 0x00, 0x00, 0x00, 0x73, 0x65, 0x72, 0x76, 
  0x69, 0x6e, 0x67, 0x5f, 0x64, 0x65, 0x66, 0x61, 0x75, 0x6c, 0x74, 0x00, 
  0x01, 0x00, 0x00, 0x00, 0x04, 0x00, 0x00, 0x00, 0x68, 0xff, 0xff, 0xff, 
  0x24, 0x00, 0x00, 0x00, 0x04, 0x00, 0x00, 0x00, 0x08, 0x00, 0x00, 0x00, 
  0x6f, 0x75, 0x74, 0x70, 0x75, 0x74, 0x5f, 0x30, 0x00, 0x00, 0x00, 0x00, 
  0x01, 0x00, 0x00, 0x00, 0x04, 0x00, 0x00, 0x00, 0x26, 0xc9, 0xff, 0xff, 
  0x04, 0x00, 0x00, 0x00, 0x0f, 0x00, 0x00, 0x00, 0x6b, 0x65, 0x72, 0x61, 
  0x73, 0x5f, 0x74, 0x65, 0x6e, 0x73, 0x6f, 0x72, 0x5f, 0x34, 0x38, 0x00, 
  0x03, 0x00, 0x00, 0x00, 0x5c, 0x00, 0x00, 0x00, 0x2c, 0x00, 0x00, 0x00, 
  0x04, 0x00, 0x00, 0x00, 0xb8, 0xff, 0xff, 0xff, 0x28, 0x00, 0x00, 0x00, 
  0x04, 0x00, 0x00, 0x00, 0x13, 0x00, 0x00, 0x00, 0x43, 0x4f, 0x4e, 0x56, 
  0x45, 0x52, 0x53, 0x49, 0x4f, 0x4e, 0x5f, 0x4d, 0x45, 0x54, 0x41, 0x44, 
  0x41, 0x54, 0x41, 0x00, 0xdc, 0xff, 0xff, 0xff, 0x27, 0x00, 0x00, 0x00, 
  0x04, 0x00, 0x00, 0x00, 0x13, 0x00, 0x00, 0x00, 0x6d, 0x69, 0x6e, 0x5f, 
  0x72, 0x75, 0x6e, 0x74, 0x69, 0x6d, 0x65, 0x5f, 0x76, 0x65, 0x72, 0x73, 
  0x69, 0x6f, 0x6e, 0x00, 0x08, 0x00, 0x0c, 0x00, 0x08, 0x00, 0x04, 0x00, 
  0x08, 0x00, 0x00, 0x00, 0x26, 0x00, 0x00, 0x00, 0x04, 0x00, 0x00, 0x00, 
  0x13, 0x00, 0x00, 0x00, 0x6d, 0x69, 0x6e, 0x5f, 0x72, 0x75, 0x6e, 0x74, 
  0x69, 0x6d, 0x65, 0x5f, 0x76, 0x65, 0x72, 0x73, 0x69, 0x6f, 0x6e, 0x00, 
  0x29, 0x00, 0x00, 0x00, 0x54, 0x36, 0x00, 0x00, 0x4c, 0x36, 0x00, 0x00, 
  0x34, 0x36, 0x00, 0x00, 0xf4, 0x35, 0x00, 0x00, 0x64, 0x33, 0x00, 0x00, 
  0x54, 0x32, 0x00, 0x00, 0x44, 0x22, 0x00, 0x00, 0x34, 0x21, 0x00, 0x00, 
  0x24, 0x15, 0x00, 0x00, 0x54, 0x14, 0x00, 0x00, 0x94, 0x12, 0x00, 0x00, 
  0xc4, 0x11, 0x00, 0x00, 0xb4, 0x0b, 0x00, 0x00, 0x24, 0x0b, 0x00, 0x00, 
  0xf4, 0x09, 0x00, 0x00, 0x64, 0x09, 0x00, 0x00, 0x54, 0x06, 0x00, 0x00, 
  0xe4, 0x05, 0x00, 0x00, 0xfc, 0x04, 0x00, 0x00, 0x8c, 0x04, 0x00, 0x00, 
  0xfc, 0x02, 0x00, 0x00, 0xac, 0x02, 0x00, 0x00, 0x0c, 0x02, 0x00, 0x00, 
  0xbc, 0x01, 0x00, 0x00, 0x1c, 0x01, 0x00, 0x00, 0x14, 0x01, 0x00, 0x00, 
  0x0c, 0x01, 0x00, 0x00, 0x04, 0x01, 0x00, 0x00, 0xfc, 0x00, 0x00, 0x00, 
  0xf4, 0x00, 0x00, 0x00, 0xec, 0x00, 0x00, 0x00, 0xe4, 0x00, 0x00, 0x00, 
  0xdc, 0x00, 0x00, 0x00, 0xd4, 0x00, 0x00, 0x00, 0xcc, 0x00, 0x00, 0x00, 
  0xc4, 0x00, 0x00, 0x00, 0xbc, 0x00, 0x00, 0x00, 0xb4, 0x00, 0x00, 0x00, 
  0x94, 0x00, 0x00, 0x00, 0x74, 0x00, 0x00, 0x00, 0x04, 0x00, 0x00, 0x00, 
  0x6e, 0xca, 0xff, 0xff, 0x04, 0x00, 0x00, 0x00, 0x60, 0x00, 0x00, 0x00, 
  0x0c, 0x00, 0x00, 0x00, 0x08, 0x00, 0x0e, 0x00, 0x08, 0x00, 0x04, 0x00, 
  0x08, 0x00, 0x00, 0x00, 0x10, 0x00, 0x00, 0x00, 0x28, 0x00, 0x00, 0x00, 
  0x00, 0x00, 0x06, 0x00, 0x08, 0x00, 0x04, 0x00, 0x06, 0x00, 0x00, 0x00, 
  0x04, 0x00, 0x00, 0x00, 0x01, 0x00, 0x00, 0x00, 0xeb, 0x03, 0x00, 0x00, 
  0x0c, 0x00, 0x18, 0x00, 0x14, 0x00, 0x10, 0x00, 0x0c, 0x00, 0x04, 0x00, 
  0x0c, 0x00, 0x00, 0x00, 0xc5, 0x33, 0x30, 0xa1, 0xfe, 0x3c, 0xa0, 0x53, 
  0x02, 0x00, 0x00, 0x00, 0x02, 0x00, 0x00, 0x00, 0x04, 0x00, 0x00, 0x00, 
  0x06, 0x00, 0x00, 0x00, 0x32, 0x2e, 0x31, 0x38, 0x2e, 0x30, 0x00, 0x00, 
  0xda, 0xca, 0xff, 0xff, 0x04, 0x00, 0x00, 0x00, 0x10, 0x00, 0x00, 0x00, 
  0x00, 0x00, 0x00, 0x00, 0x00, 0x00, 0x00, 0x00, 0x00, 0x00, 0x00, 0x00, 
  0x00, 0x00, 0x00, 0x00, 0xf6, 0xca, 0xff, 0xff, 0x04, 0x00, 0x00, 0x00, 
  0x10, 0x00, 0x00, 0x00, 0x31, 0x2e, 0x31, 0x34, 0x2e, 0x30, 0x00, 0x00, 
  0x00, 0x00, 0x00, 0x00, 0x00, 0x00, 0x00, 0x00, 0x7c, 0x90, 0xff, 0xff, 
  0x80, 0x90, 0xff, 0xff, 0x84, 0x90, 0xff, 0xff, 0x88, 0x90, 0xff, 0xff, 
  0x8c, 0x90, 0xff, 0xff, 0x90, 0x90, 0xff, 0xff, 0x94, 0x90, 0xff, 0xff, 
  0x98, 0x90, 0xff, 0xff, 0x9c, 0x90, 0xff, 0xff, 0xa0, 0x90, 0xff, 0xff, 
  0xa4, 0x90, 0xff, 0xff, 0xa8, 0x90, 0xff, 0xff, 0xac, 0x90, 0xff, 0xff, 
  0x46, 0xcb, 0xff, 0xff, 0x04, 0x00, 0x00, 0x00, 0x90, 0x00, 0x00, 0x00, 
  0x55, 0x7d, 0x7f, 0x72, 0x7c, 0x3c, 0x2b, 0x21, 0xfc, 0x35, 0xab, 0x71, 
  0x07, 0xa1, 0x6e, 0xec, 0x81, 0x53, 0x4b, 0x5e, 0x3e, 0xf1, 0x2d, 0xe2, 
  0x31, 0xac, 0x81, 0x51, 0x81, 0x1c, 0x36, 0xb1, 0x38, 0xc9, 0xa5, 0xf5, 
  0x7f, 0x51, 0x5d, 0x34, 0x4f, 0x16, 0x18, 0xf5, 0xf7, 0x30, 0x1d, 0x31, 
  0x3c, 0x79, 0x29, 0x75, 0x77, 0x7f, 0x00, 0x2d, 0x70, 0xca, 0x7e, 0x7f, 
  0xe3, 0x64, 0x76, 0xcc, 0x5a, 0x73, 0x0d, 0x3d, 0x7f, 0x3f, 0x41, 0x65, 
  0x0b, 0xde, 0xdc, 0xcb, 0x81, 0xb3, 0x21, 0x07, 0x13, 0xca, 0x2e, 0x17, 
  0x54, 0x47, 0x29, 0x7f, 0x47, 0x50, 0x88, 0xee, 0x2d, 0x81, 0x97, 0xed, 
  0x04, 0x3a, 0xc1, 0x97, 0x81, 0xc3, 0xd7, 0xdf, 0xf0, 0x14, 0x0c, 0x23, 
  0x6a, 0x7f, 0x72, 0x33, 0x66, 0x29, 0x18, 0x39, 0x12, 0x11, 0x5c, 0x51, 
  0x3c, 0x5a, 0x7f, 0x39, 0x51, 0x72, 0x3b, 0xcb, 0xb7, 0x0e, 0xc2, 0x29, 
  0xdd, 0x7f, 0x90, 0x5c, 0x7f, 0x64, 0x52, 0x5c, 0x4c, 0x1c, 0x28, 0x08, 
  0xe2, 0xcb, 0xff, 0xff, 0x04, 0x00, 0x00, 0x00, 0x40, 0x00, 0x00, 0x00, 
  0xfa, 0xff, 0xff, 0xff, 0x23, 0x42, 0x00, 0x00, 0xb6, 0xd6, 0xff, 0xff, 
  0x30, 0xfb, 0xff, 0xff, 0xf6, 0xae, 0xff, 0xff, 0xec, 0x66, 0x00, 0x00, 
  0xc5, 0x1c, 0x00, 0x00, 0x8d, 0x19, 0x00, 0x00, 0xa8, 0x0e, 0x00, 0x00, 
  0x97, 0x39, 0x00, 0x00, 0x8b, 0xf8, 0xff, 0xff, 0xee, 0x13, 0x00, 0x00, 
  0xe8, 0xfa, 0xff, 0xff, 0x5b, 0x0b, 0x00, 0x00, 0x01, 0x0f, 0x00, 0x00, 
  0xff, 0xfd, 0xff, 0xff, 0x2e, 0xcc, 0xff, 0xff, 0x04, 0x00, 0x00, 0x00, 
  0x90, 0x00, 0x00, 0x00, 0x81, 0x0d, 0x81, 0xbd, 0x44, 0x1c, 0xed, 0x1e, 
  0xa9, 0x20, 0x7f, 0x5b, 0x9a, 0x44, 0xd2, 0x81, 0xc5, 0xb0, 0xa0, 0xab, 
  0x36, 0x71, 0x7b, 0x63, 0x9c, 0x09, 0xe4, 0x7f, 0x81, 0x67, 0x81, 0x90, 
  0xf8, 0x7b, 0xae, 0xa4, 0x20, 0x2d, 0x3b, 0x7f, 0x81, 0x11, 0x41, 0x67, 
  0xc8, 0x7f, 0x08, 0xc8, 0xd5, 0x00, 0x89, 0xe3, 0x60, 0x52, 0x58, 0x3d, 
  0xdd, 0x42, 0xd7, 0x77, 0xd8, 0xfc, 0xaa, 0xf0, 0xf7, 0x81, 0xdd, 0x4d, 
  0x55, 0x7f, 0x5e, 0x77, 0xb9, 0x53, 0xe0, 0x66, 0x07, 0x73, 0xbc, 0xf2, 
  0x2b, 0x64, 0xd9, 0x26, 0x6c, 0x70, 0x50, 0x6b, 0xb1, 0x26, 0x63, 0x77, 
  0xf2, 0x35, 0xba, 0xff, 0x03, 0x11, 0xb0, 0x81, 0x44, 0x4c, 0x42, 0x35, 
  0xf3, 0x42, 0x31, 0x7d, 0x29, 0x13, 0x3f, 0x28, 0x3a, 0x95, 0xd2, 0x27, 
  0x7f, 0x63, 0x7f, 0x1f, 0xc3, 0x6c, 0xc9, 0x76, 0x0b, 0x49, 0x5d, 0x49, 
  0x38, 0x6a, 0xc8, 0x3b, 0x4f, 0x32, 0x6e, 0x5f, 0xc5, 0x7f, 0x42, 0x56, 
  0x2d, 0x52, 0x96, 0x2d, 0xca, 0xcc, 0xff, 0xff, 0x04, 0x00, 0x00, 0x00, 
  0x40, 0x00, 0x00, 0x00, 0x88, 0x03, 0x00, 0x00, 0x86, 0x00, 0x00, 0x00, 
  0xc8, 0x03, 0x00, 0x00, 0x94, 0xfe, 0xff, 0xff, 0x5a, 0xf5, 0xff, 0xff, 
  0x80, 0x08, 0x00, 0x00, 0xa7, 0x03, 0x00, 0x00, 0xb8, 0x02, 0x00, 0x00, 
  0x1f, 0x0b, 0x00, 0x00, 0xc7, 0x05, 0x00, 0x00, 0x86, 0xfe, 0xff, 0xff, 
  0x03, 0x00, 0x00, 0x00, 0x53, 0x04, 0x00, 0x00, 0x6c, 0x01, 0x00, 0x00, 
  0x69, 0xfe, 0xff, 0xff, 0x4f, 0x04, 0x00, 0x00, 0x16, 0xcd, 0xff, 0xff, 
  0x04, 0x00, 0x00, 0x00, 0x80, 0x01, 0x00, 0x00, 0x5b, 0xed, 0x3b, 0x72, 
  0x81, 0xf7, 0xd2, 0x82, 0x98, 0xa9, 0x79, 0x89, 0x74, 0x4f, 0x44, 0xd1, 
  0x81, 0x92, 0xec, 0xeb, 0x05, 0x47, 0x4e, 0x31, 0x7d, 0x0a, 0x27, 0xb9, 
  0xbb, 0x28, 0x11, 0xad, 0x05, 0x7f, 0x0a, 0x09, 0x22, 0x23, 0xda, 0xed, 
  0xd1, 0x1c, 0xef, 0x32, 0x24, 0xe6, 0xe9, 0x43, 0xac, 0x81, 0x39, 0xfe, 
  0xf6, 0x34, 0x28, 0x1e, 0x19, 0x29, 0xf5, 0xce, 0xc4, 0x38, 0x0b, 0xcc, 
  0xcb, 0xd1, 0x87, 0x60, 0x6d, 0xd6, 0x9d, 0xe8, 0xe4, 0x52, 0x90, 0xb4, 
  0x84, 0xdd, 0xa6, 0x7f, 0x5b, 0xa2, 0x1f, 0xea, 0xf1, 0xd6, 0xaa, 0x02, 
  0x5a, 0xa9, 0x5f, 0xfb, 0x81, 0x1e, 0x02, 0x47, 0xce, 0x48, 0xf3, 0xb6, 
  0xeb, 0xae, 0x81, 0xf5, 0xdf, 0x98, 0xc9, 0xd4, 0xeb, 0x8b, 0xcc, 0x1d, 
  0xe7, 0x81, 0x7c, 0xd8, 0x8f, 0x83, 0xe9, 0xa1, 0x76, 0x9c, 0xf3, 0x4a, 
  0xd8, 0xb9, 0x6a, 0x1c, 0xc3, 0x59, 0x20, 0x19, 0x81, 0x3a, 0x30, 0x27, 
  0x40, 0x38, 0x14, 0xb8, 0x1e, 0xe5, 0xdd, 0x03, 0xb9, 0x81, 0x2c, 0x02, 
  0xb3, 0x2f, 0x35, 0x36, 0x6e, 0x39, 0x06, 0xb2, 0xb1, 0x28, 0xd8, 0xad, 
  0x7f, 0xc6, 0x0f, 0x27, 0x51, 0xef, 0xeb, 0x01, 0xab, 0x4f, 0x35, 0x1b, 
  0x10, 0xd3, 0xf0, 0x6d, 0x32, 0xed, 0x1e, 0x23, 0x7f, 0x14, 0x31, 0x9a, 
  0x47, 0xc1, 0xdf, 0x29, 0x27, 0xd5, 0xe6, 0x09, 0x5b, 0x73, 0xdd, 0x8a, 
  0x1e, 0xa5, 0xe1, 0xcc, 0x8d, 0xf7, 0x81, 0x5a, 0x92, 0xf2, 0x27, 0x6e, 
  0x72, 0xb2, 0x93, 0x85, 0xac, 0x7f, 0x11, 0x62, 0x23, 0x53, 0x0c, 0x0d, 
  0x26, 0x5c, 0x98, 0x69, 0x11, 0x04, 0x9b, 0x94, 0x09, 0x07, 0x96, 0x81, 
  0x4f, 0x3c, 0xa2, 0xfe, 0x8a, 0x12, 0xa7, 0x23, 0x53, 0x40, 0xf2, 0x90, 
  0x92, 0xd9, 0xa0, 0x81, 0x59, 0x5c, 0xff, 0x0d, 0x28, 0xc5, 0x48, 0x6d, 
  0x81, 0xa0, 0x42, 0x05, 0xa3, 0x4c, 0x2f, 0x0a, 0x75, 0x30, 0x2d, 0x92, 
  0xf0, 0x43, 0x26, 0xae, 0x7f, 0x23, 0xb7, 0x3d, 0x37, 0x21, 0x33, 0xc0, 
  0xb2, 0xd1, 0x3e, 0x0d, 0x43, 0xb4, 0xdf, 0x7a, 0x32, 0x81, 0xc7, 0x32, 
  0x09, 0x3b, 0x19, 0x44, 0x1e, 0xe9, 0xee, 0x18, 0x0b, 0x00, 0x2a, 0x4a, 
  0xdd, 0x81, 0x0f, 0xfa, 0xfe, 0x10, 0x0b, 0x21, 0x33, 0x0c, 0x07, 0xef, 
  0xe0, 0x21, 0x12, 0xfd, 0xe4, 0x81, 0x2f, 0x00, 0xec, 0xfd, 0x21, 0x1d, 
  0x2c, 0x1a, 0x0b, 0xe9, 0xd3, 0xfe, 0x11, 0xd1, 0x72, 0x99, 0x32, 0xe4, 
  0xe1, 0xfa, 0x36, 0xc9, 0xbb, 0xcf, 0xf6, 0x54, 0x1c, 0xda, 0xcd, 0x7f, 
  0x00, 0x81, 0x4c, 0xeb, 0x39, 0x44, 0xea, 0x1c, 0xd9, 0x0e, 0xce, 0x3b, 
  0x1f, 0xf6, 0x33, 0x38, 0xa9, 0xa8, 0x19, 0x19, 0x8b, 0x47, 0x3d, 0x0c, 
  0x7f, 0x4b, 0xd4, 0x87, 0xaa, 0x46, 0xdf, 0xcd, 0xa2, 0xce, 0xff, 0xff, 
  0x04, 0x00, 0x00, 0x00, 0x60, 0x00, 0x00, 0x00, 0x8b, 0xff, 0xff, 0xff, 
  0x4d, 0x00, 0x00, 0x00, 0x0c, 0x01, 0x00, 0x00, 0x65, 0xff, 0xff, 0xff, 
  0x72, 0x00, 0x00, 0x00, 0x41, 0xff, 0xff, 0xff, 0xfe, 0xff, 0xff, 0xff, 
  0xe8, 0xff, 0xff, 0xff, 0xc5, 0x01, 0x00, 0x00, 0xfc, 0x00, 0x00, 0x00, 
  0xcc, 0x00, 0x00, 0x00, 0xac, 0x04, 0x00, 0x00, 0x57, 0xff, 0xff, 0xff, 
  0xf8, 0xfa, 0xff, 0xff, 0x84, 0xff, 0xff, 0xff, 0x7d, 0xff, 0xff, 0xff, 
  0xd8, 0x00, 0x00, 0x00, 0x73, 0xff, 0xff, 0xff, 0x03, 0xff, 0xff, 0xff, 
  0x88, 0x00, 0x00, 0x00, 0x99, 0x00, 0x00, 0x00, 0x72, 0x00, 0x00, 0x00, 
  0x65, 0x00, 0x00, 0x00, 0xe4, 0x00, 0x00, 0x00, 0x0e, 0xcf, 0xff, 0xff, 
  0x04, 0x00, 0x00, 0x00, 0xd8, 0x00, 0x00, 0x00, 0xc5, 0x81, 0x7c, 0x8d, 
  0x6d, 0x36, 0x03, 0x17, 0x29, 0x59, 0x93, 0xb0, 0xee, 0xf0, 0x32, 0x7f, 
  0x81, 0x81, 0x05, 0x96, 0xec, 0x81, 0xc9, 0xf9, 0x82, 0xac, 0x50, 0x50, 
  0x7f, 0xe6, 0x33, 0xfb, 0x62, 0x31, 0xaa, 0xe5, 0x97, 0xbd, 0x3f, 0x20, 
  0xae, 0xc1, 0x2f, 0xc4, 0x10, 0xcf, 0xde, 0x5b, 0x7f, 0xf4, 0x7d, 0x7f, 
  0xa5, 0x3c, 0x96, 0x77, 0x7f, 0x5c, 0xad, 0x04, 0x7f, 0xfb, 0x53, 0x35, 
  0x14, 0xf5, 0xdf, 0xc5, 0x2b, 0xdd, 0x17, 0x7f, 0xa2, 0xdd, 0x65, 0x83, 
  0xf9, 0xd5, 0x58, 0xe5, 0x6a, 0x7f, 0xfb, 0xbb, 0xfa, 0x96, 0x9a, 0x74, 
  0xbe, 0xb3, 0x08, 0x8e, 0x81, 0xda, 0x5f, 0x43, 0x1c, 0x04, 0x7f, 0xf7, 
  0xa1, 0x81, 0x88, 0xe0, 0x63, 0x6f, 0x0d, 0xd3, 0x10, 0x2f, 0x7f, 0xff, 
  0x10, 0xd4, 0x7f, 0x48, 0x24, 0x12, 0x4a, 0x31, 0x5d, 0x1a, 0x79, 0x22, 
  0x06, 0x62, 0x7f, 0xcb, 0x7a, 0x64, 0x6d, 0x00, 0xb3, 0x42, 0x9c, 0x23, 
  0xed, 0xdf, 0x73, 0x7f, 0x1f, 0x48, 0x05, 0x5f, 0x8c, 0x47, 0x2e, 0x01, 
  0xd7, 0xee, 0xaa, 0x7f, 0x1d, 0x68, 0xb9, 0x81, 0x0b, 0x48, 0xfd, 0x71, 
  0x1b, 0xd1, 0xe6, 0xf2, 0xd8, 0xc9, 0x7f, 0x41, 0x4f, 0x4d, 0x38, 0xfe, 
  0x65, 0xdb, 0x71, 0x1f, 0x67, 0x57, 0x81, 0xd2, 0x3d, 0x7f, 0xb1, 0x8a, 
  0x50, 0xcf, 0x5c, 0x1f, 0x2d, 0xa5, 0x7e, 0x32, 0x2c, 0x48, 0x72, 0x09, 
  0x98, 0x0c, 0xbd, 0x73, 0x31, 0x5b, 0xa2, 0xc3, 0xf4, 0x20, 0x38, 0x20, 
  0x4e, 0xc8, 0x07, 0x7f, 0x0c, 0xac, 0x15, 0x32, 0xf2, 0xcf, 0xff, 0xff, 
  0x04, 0x00, 0x00, 0x00, 0x60, 0x00, 0x00, 0x00, 0x5c, 0x03, 0x00, 0x00, 
  0x03, 0x01, 0x00, 0x00, 0x0a, 0x00, 0x00, 0x00, 0x45, 0xff, 0xff, 0xff, 
  0x10, 0x02, 0x00, 0x00, 0x23, 0xff, 0xff, 0xff, 0xd7, 0xff, 0xff, 0xff, 
  0xd7, 0xff, 0xff, 0xff, 0x7e, 0x01, 0x00, 0x00, 0x94, 0x00, 0x00, 0x00, 
  0x18, 0x04, 0x00, 0x00, 0xc9, 0x02, 0x00, 0x00, 0x49, 0xfe, 0xff, 0xff, 
  0x6b, 0xff, 0xff, 0xff, 0x47, 0xff, 0xff, 0xff, 0x5c, 0xff, 0xff, 0xff, 
  0x61, 0x01, 0x00, 0x00, 0xee, 0x03, 0x00, 0x00, 0xe0, 0xfe, 0xff, 0xff, 
  0xda, 0xff, 0xff, 0xff, 0xd2, 0x00, 0x00, 0x00, 0xdd, 0x03, 0x00, 0x00, 
  0xe8, 0xff, 0xff, 0xff, 0x36, 0x00, 0x00, 0x00, 0x5e, 0xd0, 0xff, 0xff, 
  0x04, 0x00, 0x00, 0x00, 0x00, 0x03, 0x00, 0x00, 0x04, 0xbe, 0x1b, 0xed, 
  0x28, 0x14, 0x03, 0xf9, 0x14, 0x3f, 0x28, 0x17, 0xe9, 0xd5, 0x18, 0xff, 
  0xa6, 0x23, 0x09, 0x81, 0xb5, 0x6a, 0xf8, 0x22, 0x09, 0x3b, 0x58, 0x62, 
  0xdd, 0x32, 0xcb, 0x32, 0x46, 0xc0, 0x88, 0x24, 0x15, 0xf6, 0x04, 0x04, 
  0x29, 0x81, 0xec, 0x17, 0x49, 0x9a, 0xfe, 0x3f, 0xf4, 0xb1, 0xff, 0xe6, 
  0x32, 0xe1, 0x14, 0x30, 0x26, 0x34, 0x6f, 0x38, 0x38, 0x35, 0x08, 0x37, 
  0xd9, 0x6a, 0x05, 0xe3, 0xd6, 0x7f, 0x1e, 0x07, 0x11, 0xca, 0xdc, 0xb9, 
  0x20, 0xe6, 0xe0, 0xd8, 0x2a, 0x4b, 0x5c, 0x76, 0x1e, 0xf2, 0xf5, 0xef, 
  0xf6, 0x5e, 0x32, 0xa8, 0x97, 0x7f, 0xd6, 0x15, 0x13, 0xb8, 0xe0, 0x8a, 
  0x05, 0xe1, 0xf8, 0xeb, 0x37, 0x11, 0x65, 0x10, 0x24, 0x10, 0x19, 0xef, 
  0x8d, 0x5a, 0x01, 0xa3, 0x81, 0x1c, 0x2f, 0x04, 0xdd, 0x46, 0x81, 0x05, 
  0xc0, 0xfc, 0x00, 0xca, 0x10, 0x19, 0x12, 0x9b, 0xcb, 0x07, 0x1e, 0xcb, 
  0x3a, 0xac, 0x35, 0x13, 0x01, 0x07, 0x40, 0xdf, 0x13, 0x0a, 0x23, 0x07, 
  0xf7, 0xf1, 0xfc, 0x19, 0x19, 0x2f, 0x51, 0x42, 0xe7, 0xfd, 0x22, 0xdf, 
  0xfa, 0x7c, 0x4d, 0xb3, 0xee, 0x7f, 0x00, 0x44, 0xed, 0x3e, 0x1e, 0xd7, 
  0x12, 0x03, 0x0b, 0x12, 0x1e, 0xf0, 0xb0, 0x36, 0x16, 0x22, 0xf7, 0xee, 
  0x1b, 0x81, 0x08, 0x26, 0xda, 0xc4, 0xfc, 0x1a, 0x33, 0xee, 0x8e, 0xad, 
  0xeb, 0xe6, 0xc4, 0xc0, 0x34, 0x32, 0x78, 0x27, 0xf9, 0x2d, 0xe1, 0x4e, 
  0xcf, 0x1f, 0xe4, 0x20, 0xf3, 0x7f, 0x1f, 0x4c, 0xdc, 0x2d, 0x81, 0x9f, 
  0xde, 0xdf, 0xc2, 0x0d, 0xce, 0x2a, 0xcd, 0xc4, 0xcf, 0x4a, 0xf5, 0xe3, 
  0x46, 0xd1, 0x0a, 0x03, 0x0c, 0xfe, 0x42, 0x43, 0x07, 0xfb, 0xe9, 0x7f, 
  0xf5, 0xf1, 0xe4, 0xf0, 0x23, 0xce, 0xf1, 0xe5, 0x12, 0x0f, 0x06, 0x05, 
  0x12, 0xed, 0xe1, 0xf9, 0x5a, 0xd6, 0x06, 0x15, 0x0f, 0x1f, 0x7f, 0xfc, 
  0x45, 0xfc, 0xf8, 0x16, 0x15, 0xf9, 0xc1, 0xcc, 0xef, 0x12, 0xf1, 0x15, 
  0x2e, 0x93, 0x0a, 0x05, 0x7a, 0xa4, 0x1e, 0xdc, 0x10, 0x40, 0x8d, 0x27, 
  0x20, 0x17, 0x1d, 0x27, 0x51, 0xdc, 0xfa, 0x8a, 0xd1, 0x82, 0xf0, 0x0e, 
  0xf8, 0x0e, 0x81, 0x4b, 0xd4, 0x57, 0xdd, 0xdb, 0x26, 0xd9, 0xd9, 0xd0, 
  0x22, 0xed, 0x11, 0xee, 0x39, 0x29, 0x7f, 0x3b, 0x18, 0xe5, 0x01, 0x0a, 
  0xdc, 0x67, 0x03, 0xbe, 0xb7, 0x76, 0xe6, 0x30, 0x73, 0x74, 0x09, 0x10, 
  0xfe, 0x93, 0xa4, 0xc8, 0xaf, 0xa8, 0xa1, 0x8b, 0x0c, 0x81, 0xd6, 0xf6, 
  0xb0, 0x7b, 0x5d, 0xae, 0xf1, 0x74, 0xc5, 0x2c, 0xec, 0xd1, 0xf7, 0xbb, 
  0xdb, 0x11, 0x1c, 0xce, 0x1a, 0x48, 0x7f, 0x22, 0x28, 0x24, 0xdb, 0x2f, 
  0xd8, 0x78, 0x11, 0xe1, 0xac, 0x53, 0xe2, 0x41, 0x0f, 0x86, 0x5c, 0xa5, 
  0x0e, 0x65, 0x8a, 0xcc, 0x01, 0x94, 0x9d, 0xce, 0xfe, 0x25, 0x5e, 0x41, 
  0xd5, 0xf1, 0xbc, 0x29, 0x9e, 0xa8, 0x10, 0x81, 0x47, 0x87, 0x99, 0x27, 
  0x3f, 0xc0, 0x1d, 0xf3, 0xa9, 0xb5, 0xb5, 0x9b, 0x67, 0xe6, 0xfe, 0x09, 
  0x2f, 0x7f, 0x62, 0x76, 0x59, 0x8d, 0x51, 0xcf, 0x1a, 0xd8, 0xd0, 0xdc, 
  0x22, 0x03, 0x09, 0x6e, 0x21, 0x86, 0x5b, 0x68, 0x3e, 0x81, 0x30, 0x5f, 
  0x42, 0xd5, 0x28, 0xca, 0x07, 0xda, 0x37, 0x2e, 0xf8, 0xbf, 0x43, 0x76, 
  0x13, 0xcf, 0xc3, 0xe7, 0x00, 0xe4, 0xc8, 0x25, 0xc9, 0x3a, 0xfc, 0xdc, 
  0x14, 0xdd, 0xf2, 0x15, 0x7f, 0xc9, 0x0f, 0x21, 0x23, 0x4d, 0x4e, 0xe8, 
  0xdd, 0xe5, 0xf8, 0x11, 0x54, 0xec, 0xbf, 0x7f, 0xea, 0x3a, 0x1c, 0x16, 
  0x38, 0xbf, 0x5c, 0xf3, 0x47, 0x04, 0x12, 0xfb, 0x21, 0xd7, 0xdb, 0x60, 
  0xed, 0x1e, 0xe1, 0x22, 0x2a, 0x4d, 0x09, 0x23, 0xf4, 0xf6, 0x0c, 0xf4, 
  0x81, 0x34, 0x3c, 0xaa, 0xb3, 0xfc, 0x2b, 0x47, 0x2a, 0xe8, 0xdf, 0x1a, 
  0x15, 0x15, 0x07, 0xf6, 0x37, 0x1c, 0x7f, 0x46, 0xf3, 0xec, 0x12, 0x12, 
  0x02, 0x61, 0x10, 0xbe, 0xcc, 0x6f, 0xde, 0x17, 0x73, 0xb0, 0xa6, 0x2f, 
  0x43, 0xb2, 0x3c, 0x0b, 0x88, 0xa9, 0x68, 0x58, 0x2f, 0xc2, 0x65, 0x81, 
  0x14, 0x3b, 0x9a, 0x53, 0xf2, 0xa0, 0xac, 0x1c, 0x33, 0xa5, 0xcc, 0x30, 
  0x35, 0x26, 0x15, 0x2a, 0x27, 0x4e, 0x67, 0x20, 0xed, 0xf0, 0xe0, 0x0a, 
  0xb6, 0x6f, 0xe2, 0xcc, 0xf3, 0x7f, 0x0d, 0x2d, 0xa7, 0x8e, 0xa2, 0x30, 
  0x2e, 0xbb, 0xd1, 0xce, 0x8a, 0x9c, 0xfd, 0x66, 0xe8, 0x50, 0x5b, 0x38, 
  0xa2, 0xfc, 0xde, 0xa3, 0x53, 0x69, 0xa5, 0x81, 0xd8, 0x2e, 0xde, 0x81, 
  0x04, 0x28, 0xf1, 0x11, 0x22, 0x47, 0x0a, 0x50, 0xc5, 0x0a, 0xe5, 0x3a, 
  0x48, 0x3b, 0x42, 0x32, 0xd3, 0x09, 0x3e, 0x19, 0x4d, 0x27, 0x7f, 0xdf, 
  0xeb, 0x24, 0x19, 0xe9, 0xf0, 0xda, 0xb2, 0x87, 0x16, 0xb0, 0xde, 0xb7, 
  0xe9, 0xf8, 0xa5, 0x8a, 0xff, 0x9b, 0x5f, 0x26, 0x51, 0xdd, 0x0d, 0xa8, 
  0x09, 0x2e, 0xa3, 0x15, 0x04, 0xf9, 0xdc, 0xb2, 0xb2, 0x24, 0x59, 0xfb, 
  0x8c, 0xf5, 0x9b, 0x10, 0x81, 0x19, 0x17, 0x90, 0x25, 0xb8, 0x08, 0x6e, 
  0x14, 0x23, 0xf0, 0xdd, 0xef, 0xdf, 0x0f, 0x48, 0xe5, 0x1d, 0xfd, 0x14, 
  0x81, 0x0a, 0xc1, 0x96, 0x7e, 0xed, 0xef, 0x12, 0xf4, 0x1f, 0x05, 0xdc, 
  0xf7, 0xf4, 0x0e, 0xf8, 0xf4, 0xf5, 0xca, 0x18, 0x0f, 0x08, 0x0a, 0x12, 
  0x23, 0x81, 0x08, 0x1d, 0x32, 0xcb, 0x16, 0x0a, 0x0c, 0x3a, 0x13, 0x7f, 
  0x01, 0xf1, 0xda, 0xe2, 0xf4, 0x1e, 0xc3, 0xdc, 0xf6, 0x0e, 0x2b, 0x11, 
  0x3b, 0xe7, 0x1e, 0x2b, 0x48, 0x05, 0x3b, 0x2c, 0x6a, 0xd3, 0xff, 0xff, 
  0x04, 0x00, 0x00, 0x00, 0x80, 0x00, 0x00, 0x00, 0x53, 0x00, 0x00, 0x00, 
  0x6e, 0x00, 0x00, 0x00, 0xe8, 0x00, 0x00, 0x00, 0x8d, 0x00, 0x00, 0x00, 
  0x99, 0x00, 0x00, 0x00, 0x95, 0xfe, 0xff, 0xff, 0xb9, 0x00, 0x00, 0x00, 
  0xd8, 0xff, 0xff, 0xff, 0x59, 0x00, 0x00, 0x00, 0x28, 0xff, 0xff, 0xff, 
  0x16, 0x00, 0x00, 0x00, 0xff, 0x00, 0x00, 0x00, 0xe4, 0xff, 0xff, 0xff, 
  0x4c, 0x00, 0x00, 0x00, 0x07, 0x00, 0x00, 0x00, 0x42, 0x00, 0x00, 0x00, 
  0x5a, 0xff, 0xff, 0xff, 0xf2, 0xff, 0xff, 0xff, 0xa4, 0xff, 0xff, 0xff, 
  0x7b, 0x00, 0x00, 0x00, 0x27, 0x00, 0x00, 0x00, 0xfc, 0xff, 0xff, 0xff, 
  0xa0, 0x00, 0x00, 0x00, 0xed, 0xff, 0xff, 0xff, 0x5e, 0x00, 0x00, 0x00, 
  0xf4, 0xff, 0xff, 0xff, 0x28, 0x00, 0x00, 0x00, 0x65, 0x01, 0x00, 0x00, 
  0x90, 0xff, 0xff, 0xff, 0x46, 0x00, 0x00, 0x00, 0x10, 0x00, 0x00, 0x00, 
  0xcd, 0xff, 0xff, 0xff, 0xf6, 0xd3, 0xff, 0xff, 0x04, 0x00, 0x00, 0x00, 
  0x20, 0x01, 0x00, 0x00, 0x7f, 0x4e, 0x57, 0xae, 0x49, 0xe0, 0x58, 0xb2, 
  0x5a, 0x64, 0x6f, 0x07, 0x49, 0xae, 0xc6, 0x12, 0x17, 0x1a, 0x2a, 0x5d, 
  0x14, 0xc9, 0x85, 0xa0, 0x62, 0xf3, 0x31, 0x58, 0x8d, 0xcb, 0x01, 0xe7, 
  0x65, 0xe0, 0x7e, 0xc0, 0x7f, 0x54, 0x54, 0x81, 0x4e, 0x03, 0x69, 0x0a, 
  0x58, 0x89, 0x1e, 0x5d, 0x0a, 0x85, 0x7f, 0x42, 0x26, 0xd3, 0xb2, 0x37, 
  0x7f, 0x2a, 0xfa, 0x3f, 0x83, 0xec, 0x23, 0xcf, 0x2c, 0xd7, 0x1b, 0xbc, 
  0x42, 0xff, 0x3d, 0xac, 0x45, 0xf6, 0x7f, 0x81, 0xd0, 0x81, 0xee, 0x49, 
  0x9c, 0x64, 0x20, 0x3e, 0x32, 0xf1, 0x81, 0x81, 0x69, 0x49, 0x00, 0x24, 
  0xb3, 0x02, 0xd8, 0x81, 0x07, 0x6e, 0x7f, 0x0b, 0x27, 0x1a, 0x06, 0x71, 
  0x30, 0x65, 0x5e, 0x2c, 0x8c, 0x25, 0xd1, 0x2d, 0x0c, 0xd4, 0xe8, 0x39, 
  0x2b, 0x12, 0x26, 0x3d, 0x77, 0xa4, 0x21, 0x28, 0x5f, 0x7f, 0x53, 0x75, 
  0xa3, 0x76, 0xfd, 0xfa, 0x3c, 0x7f, 0xe1, 0xce, 0x5d, 0x6a, 0x6b, 0xe8, 
  0x7f, 0x05, 0x51, 0x32, 0x8e, 0x21, 0x39, 0x7f, 0x69, 0x7f, 0x1d, 0xf1, 
  0x27, 0x5d, 0x56, 0x31, 0x2b, 0x75, 0x66, 0x32, 0x82, 0x27, 0x69, 0x14, 
  0x77, 0x49, 0xa6, 0xaf, 0x7f, 0x7f, 0x27, 0x9d, 0x6e, 0x44, 0x28, 0x7f, 
  0x81, 0x81, 0xb9, 0x53, 0x74, 0x6f, 0x39, 0xfa, 0x56, 0x81, 0x2e, 0x2d, 
  0x39, 0x03, 0x7f, 0xb6, 0x96, 0x7f, 0x6e, 0x32, 0x35, 0x4e, 0x6b, 0x78, 
  0x1f, 0x59, 0x63, 0x7a, 0xad, 0x0a, 0x7f, 0x56, 0xa9, 0x4b, 0x42, 0x2d, 
  0x57, 0x0b, 0x43, 0xba, 0x7a, 0xf4, 0x68, 0x7f, 0x0a, 0x79, 0x88, 0x41, 
  0xef, 0x4e, 0x7e, 0x4f, 0x2a, 0x1e, 0x58, 0x6b, 0x59, 0x45, 0x56, 0x23, 
  0x3d, 0x52, 0x3a, 0x4e, 0x94, 0x37, 0x9b, 0x6b, 0x2e, 0xe1, 0x46, 0xa5, 
  0x4b, 0xb7, 0x79, 0x7b, 0xfc, 0xfb, 0xf2, 0x4c, 0x39, 0x63, 0x2d, 0x7f, 
  0x26, 0x6e, 0x81, 0x3f, 0x60, 0x2d, 0x43, 0x00, 0xa9, 0x75, 0xcc, 0x56, 
  0x88, 0x03, 0x47, 0x29, 0x7f, 0x85, 0x3c, 0x95, 0x60, 0xdf, 0x7f, 0x72, 
  0x81, 0xfa, 0xf4, 0x22, 0x22, 0xd5, 0xff, 0xff, 0x04, 0x00, 0x00, 0x00, 
  0x80, 0x00, 0x00, 0x00, 0x96, 0xff, 0xff, 0xff, 0xc5, 0xff, 0xff, 0xff, 
  0x1c, 0x02, 0x00, 0x00, 0xac, 0x01, 0x00, 0x00, 0x12, 0x01, 0x00, 0x00, 
  0x0e, 0xfe, 0xff, 0xff, 0x91, 0xff, 0xff, 0xff, 0x22, 0xff, 0xff, 0xff, 
  0x45, 0x00, 0x00, 0x00, 0x72, 0xfe, 0xff, 0xff, 0x0a, 0x00, 0x00, 0x00, 
  0x6e, 0x00, 0x00, 0x00, 0xbe, 0xff, 0xff, 0xff, 0x25, 0x02, 0x00, 0x00, 
  0xe4, 0xff, 0xff, 0xff, 0x28, 0x00, 0x00, 0x00, 0xde, 0xfe, 0xff, 0xff, 
  0xf1, 0x03, 0x00, 0x00, 0xcd, 0x03, 0x00, 0x00, 0xff, 0xff, 0xff, 0xff, 
  0x42, 0x00, 0x00, 0x00, 0xe2, 0xff, 0xff, 0xff, 0x25, 0x01, 0x00, 0x00, 
  0xd5, 0xff, 0xff, 0xff, 0x62, 0x00, 0x00, 0x00, 0xce, 0xff, 0xff, 0xff, 
  0x31, 0x00, 0x00, 0x00, 0xf4, 0xff, 0xff, 0xff, 0x1e, 0xff, 0xff, 0xff, 
  0xfe, 0xff, 0xff, 0xff, 0xff, 0xff, 0xff, 0xff, 0xff, 0xfe, 0xff, 0xff, 
  0xae, 0xd5, 0xff, 0xff, 0x04, 0x00, 0x00, 0x00, 0x00, 0x06, 0x00, 0x00, 
  0x92, 0xfa, 0x26, 0x2c, 0xfa, 0x81, 0xc2, 0xf7, 0x26, 0xc4, 0xfd, 0xee, 
  0xdd, 0x0a, 0x14, 0xdf, 0x02, 0x1d, 0x0d, 0xe5, 0x2a, 0x2f, 0x36, 0x01, 
  0xe1, 0xd7, 0x2f, 0xc5, 0xf3, 0x17, 0xfa, 0xe1, 0x10, 0x07, 0x31, 0xb6, 
  0xb9, 0xe2, 0x1e, 0x7c, 0x05, 0xfa, 0x59, 0x48, 0x39, 0x36, 0xd1, 0xd7, 
  0xf2, 0x06, 0x42, 0x55, 0x38, 0x09, 0xfd, 0xd9, 0x2a, 0xd0, 0xe5, 0xd6, 
  0xf0, 0x15, 0x29, 0x7f, 0x10, 0x53, 0xec, 0x71, 0xda, 0xad, 0x81, 0xe9, 
  0xe5, 0xeb, 0x86, 0xae, 0xc3, 0x3f, 0x34, 0xf8, 0xe6, 0xfa, 0x2c, 0xfd, 
  0x61, 0x58, 0x7a, 0x0c, 0xd0, 0xc8, 0x12, 0x02, 0xbd, 0x99, 0x92, 0x88, 
  0xef, 0xee, 0x00, 0xbc, 0xe3, 0x1a, 0x02, 0x7f, 0x20, 0xf9, 0xe5, 0x76, 
  0x1a, 0x03, 0xfe, 0x1b, 0xfd, 0x1e, 0xff, 0x14, 0x1d, 0xe9, 0xd7, 0x18, 
  0x18, 0xff, 0xea, 0xd7, 0x15, 0xd4, 0x6c, 0x3f, 0xd5, 0xe2, 0x1b, 0x1c, 
  0x1a, 0x0f, 0x0d, 0xbe, 0x27, 0x1e, 0xcc, 0x06, 0xfb, 0x31, 0xfd, 0x1b, 
  0x01, 0xf2, 0xe5, 0xfc, 0x03, 0x37, 0x1e, 0x0d, 0x1d, 0x0f, 0x26, 0xfc, 
  0xf5, 0x81, 0xcb, 0xd3, 0x10, 0xd3, 0x30, 0xfc, 0x0b, 0x02, 0x11, 0x7f, 
  0x32, 0x1b, 0xdf, 0x45, 0x12, 0xee, 0xf2, 0x22, 0x13, 0x09, 0xfa, 0xd8, 
  0xfc, 0xde, 0x0b, 0x01, 0x30, 0x14, 0x14, 0xd3, 0xf5, 0x11, 0x08, 0x2a, 
  0x97, 0xf2, 0xc9, 0xf4, 0xff, 0xa9, 0x81, 0x57, 0x17, 0x1a, 0x1b, 0x12, 
  0xa2, 0x18, 0xb4, 0x15, 0xa0, 0x88, 0x00, 0xfe, 0x14, 0xf7, 0x1e, 0x49, 
  0xa8, 0x4b, 0x86, 0x04, 0xb9, 0xa5, 0xaa, 0x45, 0xe2, 0x11, 0xdb, 0x2b, 
  0xcc, 0x04, 0xb5, 0x3c, 0xda, 0xf9, 0x81, 0xa9, 0xf4, 0x44, 0x21, 0x22, 
  0xf5, 0x00, 0xff, 0xf7, 0x1c, 0x36, 0x6a, 0x07, 0xf1, 0x1f, 0xf5, 0xf8, 
  0x19, 0x62, 0x22, 0xe9, 0x52, 0x35, 0xdb, 0x9d, 0xd7, 0xb6, 0xb5, 0xee, 
  0x9e, 0x2e, 0x4f, 0xba, 0x76, 0x08, 0x8a, 0x06, 0x15, 0x02, 0xab, 0xfd, 
  0x0e, 0xbd, 0xb7, 0x6f, 0x89, 0xff, 0x81, 0x22, 0x24, 0x5d, 0xe5, 0x53, 
  0xe2, 0x20, 0xe7, 0x48, 0xdc, 0xe4, 0x1e, 0x76, 0xe7, 0xe9, 0x17, 0x22, 
  0x1b, 0x38, 0xf6, 0xd8, 0x05, 0x19, 0x0c, 0xf9, 0x10, 0x7f, 0x2a, 0x0e, 
  0xfa, 0x0f, 0x26, 0xc7, 0x0f, 0xee, 0x66, 0x3b, 0x42, 0x62, 0x01, 0xc4, 
  0xe0, 0xc0, 0x5c, 0x98, 0x26, 0x26, 0x06, 0x69, 0x34, 0x6c, 0x02, 0x20, 
  0xfb, 0x53, 0xf1, 0x0b, 0x14, 0xd0, 0x7f, 0x21, 0x39, 0xfa, 0x1e, 0xab, 
  0x1e, 0xf2, 0x5d, 0x5b, 0x06, 0xbe, 0xf6, 0xda, 0xda, 0x0f, 0x23, 0x56, 
  0xeb, 0x16, 0xd6, 0xf9, 0xd0, 0xc7, 0x3b, 0x42, 0x67, 0x6e, 0x81, 0xc9, 
  0xc7, 0x31, 0x81, 0x92, 0x8c, 0xf3, 0x87, 0x70, 0x8b, 0x44, 0xcd, 0xdf, 
  0x30, 0xff, 0x03, 0xd3, 0xd8, 0x2d, 0xc6, 0xd0, 0xd7, 0x8f, 0xc7, 0xa0, 
  0xf6, 0xf2, 0x63, 0x64, 0xaa, 0xa9, 0x7c, 0x94, 0x01, 0xe7, 0x39, 0x2e, 
  0xfa, 0x22, 0x83, 0x4b, 0xa2, 0xc6, 0x51, 0x7f, 0x94, 0x39, 0x09, 0xb0, 
  0xf7, 0xe0, 0x4d, 0x14, 0x87, 0x26, 0xfe, 0x23, 0xbf, 0x70, 0xd2, 0x93, 
  0x64, 0xae, 0x49, 0x81, 0x99, 0xd2, 0x46, 0xe1, 0x00, 0xdb, 0xf6, 0xac, 
  0x07, 0xf9, 0x54, 0x2c, 0x32, 0xcb, 0xe4, 0xee, 0x17, 0x13, 0x25, 0x7f, 
  0x27, 0x0e, 0xf8, 0xb3, 0xdf, 0x20, 0x1d, 0x08, 0x26, 0xd2, 0xea, 0xae, 
  0xdc, 0x3a, 0x22, 0x1d, 0xf2, 0xdc, 0x1e, 0xb6, 0xe5, 0x2b, 0xfa, 0xe5, 
  0x13, 0xe7, 0xf2, 0x41, 0x18, 0x18, 0xcd, 0x27, 0x0c, 0xd7, 0xf2, 0xcb, 
  0x0c, 0x4f, 0x25, 0xfa, 0x01, 0x0d, 0xec, 0xd0, 0x3a, 0x7f, 0x3a, 0x0d, 
  0x08, 0xec, 0x1d, 0xfa, 0x22, 0xf2, 0xe1, 0xa7, 0x1f, 0x4a, 0xf8, 0xe5, 
  0xd1, 0x21, 0xbb, 0x7f, 0x38, 0xf7, 0x27, 0xf3, 0x32, 0x08, 0xf6, 0x16, 
  0x36, 0xd8, 0x0c, 0x64, 0x2b, 0x26, 0xfd, 0x1a, 0xe2, 0x06, 0x1f, 0x39, 
  0x39, 0xc3, 0xec, 0x63, 0xf7, 0xdb, 0x62, 0x3b, 0xd8, 0xd3, 0x02, 0xa9, 
  0x9c, 0x58, 0x97, 0x5b, 0x13, 0xdd, 0x24, 0x15, 0x6e, 0xda, 0xdf, 0x81, 
  0x93, 0x31, 0x66, 0x10, 0x96, 0x2b, 0xae, 0x12, 0x3a, 0x18, 0x95, 0x2a, 
  0x32, 0x23, 0x02, 0x17, 0x03, 0x34, 0xbd, 0x2b, 0x07, 0xfa, 0x36, 0x2c, 
  0xff, 0x18, 0x00, 0xfe, 0x02, 0x37, 0x1b, 0x32, 0x3b, 0x81, 0x0c, 0xfd, 
  0xed, 0x10, 0x23, 0xed, 0x00, 0x0e, 0x31, 0x2f, 0x81, 0x45, 0x10, 0x1f, 
  0x17, 0x15, 0x42, 0x05, 0xdf, 0xe4, 0x13, 0x02, 0x05, 0x27, 0x06, 0xf3, 
  0xf2, 0x41, 0x45, 0x39, 0x3f, 0xcd, 0x30, 0xf2, 0xe5, 0xf5, 0xf1, 0x57, 
  0x05, 0x09, 0x00, 0x11, 0x69, 0x2b, 0x03, 0x41, 0xd3, 0xd8, 0xdb, 0xfa, 
  0xf3, 0x0c, 0x0e, 0xf9, 0x28, 0x4b, 0x16, 0x23, 0x23, 0x13, 0x19, 0xea, 
  0xff, 0x50, 0x37, 0x0e, 0xea, 0xdc, 0x23, 0xde, 0x10, 0xdf, 0x7f, 0xb1, 
  0xf3, 0x84, 0xa7, 0xc6, 0x87, 0x83, 0x05, 0x83, 0xf6, 0x46, 0xde, 0x6b, 
  0xe4, 0xeb, 0xa3, 0xb3, 0x2e, 0xb5, 0xa8, 0x72, 0x9e, 0x30, 0x4a, 0x81, 
  0x3d, 0x1d, 0xdc, 0x9c, 0x98, 0x93, 0x52, 0xf5, 0x53, 0xf9, 0x3a, 0xd2, 
  0x36, 0xe5, 0x5f, 0x38, 0x3f, 0x1d, 0x36, 0x7f, 0xed, 0xd1, 0xe8, 0x0b, 
  0xf6, 0xee, 0xef, 0xf1, 0xf8, 0xdb, 0xf1, 0x04, 0x31, 0x0d, 0xf5, 0xf0, 
  0xf3, 0xaa, 0x5a, 0x26, 0xeb, 0x13, 0x16, 0xf3, 0x46, 0x3e, 0xf8, 0x4a, 
  0x33, 0x3c, 0xcc, 0x49, 0x18, 0xee, 0xe2, 0x35, 0x14, 0xb7, 0x81, 0x2a, 
  0x17, 0xc1, 0x24, 0x13, 0x4e, 0x08, 0x47, 0xcd, 0xd7, 0x29, 0x5e, 0xb5, 
  0x28, 0xae, 0xc5, 0x87, 0xac, 0xc0, 0xee, 0x3b, 0x38, 0x88, 0x08, 0x67, 
  0xbf, 0xbd, 0xfd, 0xaa, 0x9f, 0x2c, 0x2d, 0x8b, 0x0f, 0x81, 0xa7, 0x0d, 
  0x3f, 0xe1, 0x92, 0xb8, 0xd2, 0x25, 0x4e, 0x47, 0xf8, 0x89, 0xb9, 0xb9, 
  0xd4, 0x06, 0x29, 0x39, 0xe8, 0x81, 0xa7, 0x25, 0x9a, 0x2c, 0x6d, 0xda, 
  0x9b, 0x87, 0x58, 0xcc, 0xe6, 0x5e, 0xa6, 0xed, 0x18, 0xe8, 0x41, 0x97, 
  0x47, 0xcc, 0x50, 0x02, 0x2c, 0x0a, 0xdd, 0xf4, 0xc1, 0xff, 0x08, 0x92, 
  0xe8, 0xe7, 0x38, 0xd9, 0xcc, 0xbe, 0x17, 0xd9, 0x1a, 0x13, 0x20, 0x38, 
  0xe3, 0xbb, 0x88, 0xea, 0x2f, 0x19, 0xb0, 0x1b, 0xf9, 0xbf, 0x81, 0x35, 
  0x06, 0xe2, 0x00, 0x06, 0x06, 0x05, 0x0f, 0xdc, 0x15, 0x17, 0xc5, 0x81, 
  0x02, 0xfa, 0x13, 0x03, 0xeb, 0x0e, 0x00, 0xeb, 0xe5, 0x45, 0x17, 0x01, 
  0x02, 0xfa, 0xfe, 0xaf, 0xef, 0x17, 0xf1, 0xe2, 0xae, 0xd7, 0xdc, 0x3f, 
  0xdf, 0x2f, 0x11, 0x7f, 0x13, 0x43, 0x27, 0x58, 0xdd, 0x1b, 0xdb, 0x10, 
  0xfe, 0xf2, 0xcd, 0x1b, 0x11, 0xc4, 0x26, 0x25, 0xe3, 0x00, 0x27, 0xe7, 
  0xd8, 0x5d, 0x5f, 0x1c, 0xde, 0x00, 0x07, 0x2c, 0x30, 0xf8, 0xeb, 0x01, 
  0x0a, 0x25, 0x39, 0x4d, 0xf3, 0x47, 0xfc, 0x2a, 0x00, 0xf0, 0xf6, 0xd7, 
  0x17, 0xda, 0x53, 0x0e, 0x28, 0x03, 0x0f, 0xf6, 0x11, 0x44, 0x7f, 0x26, 
  0xff, 0xec, 0x06, 0x4a, 0xfe, 0xd8, 0xb4, 0x54, 0xe3, 0xe7, 0xc0, 0x9c, 
  0x23, 0x4e, 0x22, 0x1b, 0xe4, 0xff, 0x11, 0xdf, 0x27, 0x7f, 0x3f, 0x32, 
  0xd2, 0x02, 0x22, 0xf3, 0xd9, 0x0c, 0x99, 0xa5, 0x81, 0x07, 0x01, 0x52, 
  0xdc, 0xf6, 0x9e, 0x0e, 0x33, 0x36, 0x2e, 0x25, 0xd6, 0x5b, 0x2a, 0xe2, 
  0xde, 0x04, 0x38, 0x2a, 0x47, 0x63, 0x30, 0xcd, 0xdb, 0xca, 0x40, 0xc2, 
  0x1c, 0x25, 0xfd, 0xf0, 0x8e, 0x38, 0x23, 0xe6, 0x3c, 0xc0, 0xc6, 0x05, 
  0x41, 0x0f, 0xf2, 0x05, 0x39, 0x81, 0xc4, 0x05, 0xec, 0x14, 0x13, 0x6d, 
  0x3c, 0x91, 0xc9, 0xf9, 0x1d, 0x23, 0xf9, 0xba, 0x09, 0x45, 0xe0, 0x45, 
  0x5c, 0xcd, 0x2c, 0xd2, 0x2c, 0xc1, 0x13, 0x2c, 0x0c, 0x07, 0x24, 0x0a, 
  0xfe, 0xf5, 0xe3, 0x14, 0x18, 0x25, 0x02, 0xdb, 0xe6, 0x14, 0xd9, 0xff, 
  0x48, 0xf0, 0xf0, 0xf2, 0xe9, 0x7f, 0xc9, 0x1f, 0x48, 0x38, 0xd3, 0x27, 
  0x4a, 0x9b, 0xb4, 0x31, 0xbd, 0x25, 0x8e, 0xa9, 0x58, 0xe6, 0x16, 0x81, 
  0xc2, 0x18, 0xde, 0xe6, 0xe0, 0x65, 0x9a, 0x23, 0xab, 0xad, 0x01, 0x4a, 
  0xb3, 0x2d, 0xdb, 0xaa, 0x6c, 0x1c, 0xf0, 0x3a, 0xfa, 0xdf, 0xc6, 0xd3, 
  0x2a, 0xe8, 0xf8, 0x81, 0xdc, 0x1d, 0x0b, 0xeb, 0xf4, 0xea, 0xe7, 0x16, 
  0xfd, 0x43, 0x21, 0x17, 0xf3, 0x23, 0x33, 0xfe, 0xe1, 0xfd, 0xcf, 0xb6, 
  0x91, 0x1b, 0x15, 0xb9, 0xe7, 0xff, 0x15, 0xe8, 0x25, 0x19, 0xf7, 0x4c, 
  0x15, 0xb2, 0xde, 0x15, 0xe9, 0xdb, 0x1a, 0x2c, 0xe0, 0x1d, 0xcd, 0xed, 
  0xff, 0x03, 0x21, 0x08, 0x04, 0xdf, 0x81, 0x0e, 0xf6, 0x05, 0x01, 0x81, 
  0xa8, 0x7f, 0xfb, 0x39, 0xf2, 0x08, 0x5b, 0x61, 0xf0, 0x11, 0x11, 0xca, 
  0x3e, 0xce, 0xab, 0xfe, 0x01, 0x48, 0x88, 0xf1, 0x93, 0xc1, 0xf2, 0x35, 
  0x3f, 0x83, 0xcf, 0x1d, 0xd2, 0xef, 0x12, 0xa2, 0x14, 0xdc, 0xe1, 0x51, 
  0x19, 0xb6, 0xee, 0x11, 0x35, 0xcb, 0xcc, 0x2d, 0x13, 0x3f, 0x33, 0x07, 
  0xff, 0xe8, 0xaf, 0xd8, 0x41, 0x03, 0x21, 0xaf, 0xee, 0xf3, 0x57, 0x7f, 
  0x3b, 0x38, 0x41, 0xf3, 0x3a, 0x02, 0x4b, 0x7f, 0x29, 0x0e, 0xd3, 0xb4, 
  0x14, 0xe4, 0xe7, 0x23, 0x06, 0x47, 0x12, 0x2c, 0x3f, 0xdb, 0xdc, 0xec, 
  0x32, 0xf4, 0x04, 0x26, 0xe8, 0xd4, 0xca, 0xf7, 0xc3, 0xe3, 0x13, 0x81, 
  0x36, 0xd3, 0xcc, 0x0f, 0xeb, 0xba, 0x31, 0x4f, 0x0b, 0xce, 0xca, 0xe8, 
  0x0d, 0xea, 0x0b, 0x35, 0x2e, 0xb7, 0x81, 0x18, 0x2e, 0x28, 0x16, 0xe8, 
  0x30, 0x4e, 0x1b, 0x16, 0xad, 0xfd, 0x5b, 0x71, 0x50, 0xb8, 0xbb, 0x2d, 
  0x18, 0xd4, 0x2b, 0x33, 0xbd, 0xf0, 0xb8, 0x52, 0xaa, 0xeb, 0x58, 0x34, 
  0xd9, 0x07, 0x0f, 0x72, 0xfa, 0x7f, 0x52, 0x7b, 0xac, 0x5b, 0x26, 0xf0, 
  0x35, 0xfe, 0x00, 0xca, 0xf8, 0x0b, 0x14, 0x40, 0x13, 0xcd, 0x35, 0xf7, 
  0xf6, 0xe9, 0xee, 0xf6, 0x16, 0x1a, 0xf7, 0x24, 0xef, 0x42, 0xfd, 0xf6, 
  0xf6, 0x17, 0xc8, 0xd9, 0xeb, 0x7f, 0xeb, 0xb4, 0x47, 0xf7, 0xaa, 0xbe, 
  0xaa, 0x39, 0xcf, 0x00, 0xc4, 0xb1, 0x41, 0xfa, 0x81, 0xbb, 0xa6, 0x1e, 
  0xa1, 0x0c, 0x55, 0x82, 0x97, 0xdd, 0x3d, 0x0b, 0x93, 0x81, 0x58, 0xde, 
  0xbc, 0x63, 0x54, 0xbc, 0xc1, 0x21, 0x26, 0x1d, 0x2f, 0x0e, 0x38, 0x95, 
  0xc4, 0xfa, 0x9f, 0x1a, 0xcb, 0x15, 0xf6, 0x0d, 0xcf, 0x3c, 0x5e, 0x66, 
  0x7e, 0xf0, 0x0b, 0xbd, 0xce, 0x0f, 0xd2, 0x49, 0xb0, 0x78, 0x81, 0xc8, 
  0x4c, 0x18, 0xe2, 0x54, 0xed, 0xb2, 0xaf, 0x4d, 0xe1, 0xe8, 0xfb, 0x81, 
  0xc6, 0x59, 0xf9, 0xe0, 0xe4, 0x49, 0xd9, 0x59, 0x29, 0x01, 0x4f, 0x20, 
  0xc3, 0x0b, 0x26, 0xe3, 0xd4, 0x33, 0xc0, 0xe1, 0xb8, 0x81, 0x09, 0xba, 
  0xb0, 0x8e, 0x5b, 0xff, 0x84, 0x71, 0xe2, 0x7f, 0x95, 0xab, 0x1a, 0xc6, 
  0xc7, 0x6d, 0x4f, 0x84, 0xde, 0x53, 0x89, 0x4a, 0xaa, 0x81, 0xae, 0xc8, 
  0x27, 0xf6, 0x25, 0xd9, 0xcb, 0x9d, 0x33, 0xec, 0xa9, 0x3f, 0xe1, 0x74, 
  0xe7, 0x15, 0x81, 0x01, 0xb3, 0x2a, 0x5e, 0xd1, 0x2d, 0x43, 0x47, 0x9d, 
  0xe1, 0x3c, 0xe8, 0x16, 0x25, 0xa5, 0x8c, 0x49, 0x96, 0xd6, 0x42, 0x05, 
  0xba, 0xdb, 0xff, 0xff, 0x04, 0x00, 0x00, 0x00, 0xc0, 0x00, 0x00, 0x00, 
  0x43, 0x00, 0x00, 0x00, 0x1e, 0x00, 0x00, 0x00, 0x36, 0x00, 0x00, 0x00, 
  0xec, 0xff, 0xff, 0xff, 0xe2, 0xff, 0xff, 0xff, 0x02, 0x00, 0x00, 0x00, 
  0xce, 0xff, 0xff, 0xff, 0xbf, 0xff, 0xff, 0xff, 0xa4, 0xff, 0xff, 0xff, 
  0x42, 0x00, 0x00, 0x00, 0x11, 0x00, 0x00, 0x00, 0xf6, 0xff, 0xff, 0xff, 
  0xf0, 0xff, 0xff, 0xff, 0xfe, 0xff, 0xff, 0xff, 0xcd, 0xff, 0xff, 0xff, 
  0x31, 0x00, 0x00, 0x00, 0xdf, 0xff, 0xff, 0xff, 0xcd, 0xff, 0xff, 0xff, 
  0xa1, 0x00, 0x00, 0x00, 0xe1, 0x00, 0x00, 0x00, 0x35, 0x00, 0x00, 0x00, 
  0xfb, 0xff, 0xff, 0xff, 0xf9, 0xff, 0xff, 0xff, 0x21, 0xff, 0xff, 0xff, 
  0xec, 0xff, 0xff, 0xff, 0x92, 0xff, 0xff, 0xff, 0xd7, 0xff, 0xff, 0xff, 
  0xe9, 0xff, 0xff, 0xff, 0xda, 0xff, 0xff, 0xff, 0x10, 0x00, 0x00, 0x00, 
  0x2d, 0x00, 0x00, 0x00, 0x0a, 0x00, 0x00, 0x00, 0x14, 0x00, 0x00, 0x00, 
  0x51, 0x00, 0x00, 0x00, 0xef, 0xff, 0xff, 0xff, 0x05, 0x00, 0x00, 0x00, 
  0xed, 0xff, 0xff, 0xff, 0x14, 0x00, 0x00, 0x00, 0x46, 0x00, 0x00, 0x00, 
  0xb1, 0x00, 0x00, 0x00, 0x21, 0x00, 0x00, 0x00, 0xf3, 0xff, 0xff, 0xff, 
  0x01, 0x00, 0x00, 0x00, 0xf6, 0xff, 0xff, 0xff, 0x66, 0x00, 0x00, 0x00, 
  0x44, 0x00, 0x00, 0x00, 0xfd, 0xff, 0xff, 0xff, 0xef, 0xff, 0xff, 0xff, 
  0x86, 0xdc, 0xff, 0xff, 0x04, 0x00, 0x00, 0x00, 0xb0, 0x01, 0x00, 0x00, 
  0x5f, 0x13, 0x42, 0x58, 0xca, 0xaa, 0x86, 0x1b, 0x1c, 0xf3, 0xef, 0x7f, 
  0x3b, 0x13, 0x48, 0xf2, 0x7f, 0x0d, 0x5e, 0xf6, 0x7f, 0xce, 0x12, 0x81, 
  0xb0, 0xfb, 0xef, 0x05, 0x12, 0x1d, 0x28, 0x05, 0xf6, 0xbb, 0xac, 0x41, 
  0x55, 0x81, 0xfa, 0x05, 0x7b, 0xc1, 0xb0, 0x36, 0x6d, 0x5d, 0x68, 0xee, 
  0x7f, 0x4c, 0x28, 0x1f, 0xba, 0x82, 0x45, 0x61, 0x86, 0x30, 0xed, 0x7b, 
  0x81, 0x7e, 0x54, 0x42, 0x39, 0x7b, 0xf6, 0xdf, 0x5c, 0x04, 0x4a, 0xf1, 
  0x1b, 0x93, 0x44, 0xf1, 0xf1, 0x61, 0x56, 0x39, 0xa8, 0xde, 0x14, 0x5e, 
  0x69, 0xa5, 0x43, 0x0f, 0x49, 0x02, 0x06, 0xf4, 0x04, 0x46, 0x7f, 0xc9, 
  0x65, 0x3a, 0x53, 0x7f, 0x77, 0xd3, 0xbf, 0x5f, 0xf1, 0x51, 0xfb, 0xc6, 
  0x0b, 0x19, 0x21, 0x3c, 0x76, 0x53, 0x9e, 0x5c, 0x69, 0xda, 0x5b, 0x16, 
  0x93, 0x52, 0x2a, 0x9d, 0x0d, 0x2d, 0x61, 0x35, 0x7f, 0x81, 0xb8, 0x7f, 
  0x32, 0xbd, 0x47, 0x81, 0x63, 0xdb, 0x7f, 0xd5, 0x44, 0x6a, 0xb9, 0xe0, 
  0x43, 0x2c, 0x3c, 0xaa, 0x89, 0xd4, 0x84, 0x58, 0xc8, 0x2c, 0xc6, 0xfa, 
  0x06, 0xe4, 0x7f, 0x57, 0x0e, 0x8c, 0xea, 0xd6, 0x3d, 0xb1, 0x94, 0xb4, 
  0x18, 0x2e, 0x40, 0x27, 0x56, 0x38, 0x1a, 0x33, 0x1c, 0x1d, 0x61, 0xee, 
  0x09, 0x10, 0x7f, 0x14, 0x78, 0x0e, 0x02, 0xa6, 0x40, 0x7f, 0xc8, 0x81, 
  0x1a, 0x5a, 0x23, 0x0e, 0xf9, 0x2a, 0x81, 0x53, 0xb4, 0x62, 0xf7, 0xe7, 
  0x1d, 0xf0, 0x56, 0x56, 0x29, 0xcb, 0xa2, 0xd4, 0x72, 0xe5, 0x96, 0xc9, 
  0x5e, 0x7f, 0x7f, 0xf9, 0x40, 0x17, 0x1e, 0x32, 0xd0, 0xe1, 0x96, 0x16, 
  0x9c, 0xb5, 0x52, 0x17, 0x3b, 0xda, 0xa1, 0xa2, 0x00, 0x54, 0xae, 0x6d, 
  0x47, 0x22, 0x45, 0xde, 0x7f, 0xdc, 0x52, 0x47, 0x04, 0x7f, 0x81, 0x27, 
  0x57, 0x61, 0x40, 0x7f, 0x6b, 0xac, 0x7f, 0x6f, 0x59, 0x9f, 0xa3, 0x70, 
  0xd6, 0x8e, 0x3a, 0xc1, 0x7f, 0x37, 0x32, 0x18, 0x67, 0x04, 0x0b, 0x22, 
  0x70, 0x0d, 0x4a, 0x91, 0xee, 0x22, 0x6e, 0xa7, 0x28, 0x76, 0xad, 0x53, 
  0x29, 0x46, 0x71, 0x1b, 0x8b, 0x71, 0xf0, 0x33, 0x81, 0x66, 0xff, 0x28, 
  0x5b, 0xc1, 0x62, 0x01, 0x04, 0xa1, 0xaf, 0x81, 0xf3, 0xc9, 0x1b, 0x36, 
  0xdd, 0x20, 0x49, 0x7f, 0x0d, 0x99, 0x68, 0x6a, 0x0f, 0xda, 0x81, 0x08, 
  0x97, 0x8e, 0x7b, 0x24, 0x75, 0xce, 0x52, 0x23, 0x7f, 0x51, 0x07, 0xf6, 
  0x12, 0x7f, 0x4d, 0xba, 0x13, 0x6f, 0x37, 0x53, 0xd1, 0x29, 0x9b, 0x9d, 
  0x8a, 0x7f, 0xf2, 0x59, 0xe3, 0x46, 0x4e, 0xb0, 0x06, 0x81, 0x81, 0xc9, 
  0x0c, 0x1f, 0x79, 0x4f, 0x12, 0x81, 0x3f, 0x62, 0x50, 0x19, 0x16, 0xd4, 
  0xd1, 0x91, 0x46, 0x0f, 0x7f, 0x81, 0x59, 0x65, 0xe6, 0x24, 0xfb, 0x89, 
  0x63, 0x09, 0x7f, 0x38, 0x57, 0x7f, 0x82, 0x7f, 0x96, 0x58, 0x11, 0x23, 
  0x48, 0x14, 0xd5, 0x64, 0x78, 0x7f, 0xef, 0x69, 0xee, 0xe3, 0xd0, 0x57, 
  0x81, 0xce, 0x35, 0x25, 0x21, 0x83, 0x7f, 0x7f, 0x25, 0x7d, 0x13, 0x33, 
  0x7f, 0x0f, 0x39, 0xa2, 0x43, 0x00, 0x4e, 0x7f, 0x54, 0x5f, 0x1e, 0x81, 
  0x42, 0xde, 0xff, 0xff, 0x04, 0x00, 0x00, 0x00, 0xc0, 0x00, 0x00, 0x00, 
  0x14, 0x00, 0x00, 0x00, 0xff, 0xff, 0xff, 0xff, 0xd4, 0xff, 0xff, 0xff, 
  0xe4, 0xff, 0xff, 0xff, 0xf0, 0xff, 0xff, 0xff, 0x40, 0x00, 0x00, 0x00, 
  0xec, 0xff, 0xff, 0xff, 0xc1, 0xff, 0xff, 0xff, 0x70, 0xff, 0xff, 0xff, 
  0xf8, 0xff, 0xff, 0xff, 0xf4, 0xff, 0xff, 0xff, 0xe6, 0xff, 0xff, 0xff, 
  0xef, 0xff, 0xff, 0xff, 0xee, 0xff, 0xff, 0xff, 0x95, 0xff, 0xff, 0xff, 
  0xfd, 0xff, 0xff, 0xff, 0xc0, 0xff, 0xff, 0xff, 0x8d, 0x00, 0x00, 0x00, 
  0xfa, 0xff, 0xff, 0xff, 0x3e, 0x00, 0x00, 0x00, 0x21, 0x00, 0x00, 0x00, 
  0xbd, 0xff, 0xff, 0xff, 0xef, 0xff, 0xff, 0xff, 0x8d, 0x00, 0x00, 0x00, 
  0xec, 0xff, 0xff, 0xff, 0xa4, 0x01, 0x00, 0x00, 0xe9, 0xff, 0xff, 0xff, 
  0xaf, 0xff, 0xff, 0xff, 0xde, 0xff, 0xff, 0xff, 0xa5, 0x00, 0x00, 0x00, 
  0xf0, 0xff, 0xff, 0xff, 0xdd, 0xff, 0xff, 0xff, 0x10, 0x00, 0x00, 0x00, 
  0x7d, 0x00, 0x00, 0x00, 0xd9, 0xff, 0xff, 0xff, 0xfd, 0xff, 0xff, 0xff, 
  0xef, 0xff, 0xff, 0xff, 0x59, 0x00, 0x00, 0x00, 0x23, 0x00, 0x00, 0x00, 
  0x1d, 0x00, 0x00, 0x00, 0xfa, 0xff, 0xff, 0xff, 0xf1, 0xff, 0xff, 0xff, 
  0xc6, 0xff, 0xff, 0xff, 0xf4, 0xff, 0xff, 0xff, 0xfd, 0xff, 0xff, 0xff, 
  0xfb, 0xff, 0xff, 0xff, 0xec, 0xff, 0xff, 0xff, 0x07, 0x01, 0x00, 0x00, 
  0x0e, 0xdf, 0xff, 0xff, 0x04, 0x00, 0x00, 0x00, 0x00, 0x0c, 0x00, 0x00, 
  0xfc, 0xe1, 0x12, 0x0a, 0xed, 0x38, 0xe8, 0xef, 0xf0, 0x1d, 0xf2, 0x0e, 
  0xe6, 0x01, 0x0e, 0x2f, 0xfa, 0xf7, 0x06, 0xdb, 0xe5, 0xe8, 0x0f, 0x17, 
  0x1c, 0x13, 0xa9, 0xe7, 0x0a, 0x30, 0xfa, 0x18, 0x04, 0x1a, 0x07, 0xf9, 
  0x00, 0xea, 0xef, 0xe4, 0x01, 0xe3, 0x81, 0x18, 0x1a, 0x01, 0x09, 0x0f, 
  0x04, 0x2c, 0xce, 0x0b, 0x08, 0xbe, 0xec, 0xe2, 0x20, 0x12, 0x1b, 0x12, 
  0xcf, 0xee, 0x00, 0x35, 0x54, 0x3a, 0x7f, 0x5d, 0x51, 0x04, 0x4c, 0x16, 
  0xed, 0x43, 0xb0, 0xee, 0xf1, 0xb3, 0x35, 0x16, 0xd5, 0x02, 0x1e, 0xe7, 
  0xec, 0xf8, 0x09, 0x00, 0x09, 0x00, 0xa1, 0xde, 0x20, 0x30, 0xf4, 0x40, 
  0x05, 0x2d, 0xca, 0x18, 0xd8, 0xf4, 0x14, 0xee, 0x10, 0x81, 0x0d, 0x15, 
  0x12, 0x14, 0xf2, 0xe0, 0xf0, 0x10, 0xb9, 0x2c, 0xff, 0xf2, 0xf4, 0xed, 
  0xe9, 0x07, 0x1b, 0xf5, 0xdb, 0xee, 0xf0, 0xce, 0x1e, 0xd1, 0xee, 0x20, 
  0xf3, 0x20, 0x14, 0x06, 0x1d, 0xfd, 0xe7, 0xf4, 0x13, 0xd1, 0xed, 0xfe, 
  0x25, 0x0f, 0x22, 0xe4, 0xdd, 0xb7, 0xed, 0x3f, 0xe1, 0x10, 0x1c, 0x21, 
  0xfa, 0x23, 0xfb, 0x11, 0xf0, 0xf5, 0xee, 0x81, 0x32, 0x04, 0xd9, 0xab, 
  0xe8, 0x00, 0xf9, 0x24, 0x34, 0x07, 0x2d, 0x17, 0xf0, 0xda, 0xff, 0x31, 
  0x0c, 0xf1, 0xf8, 0x90, 0xdf, 0xf1, 0x06, 0x1a, 0xe5, 0xcb, 0x1b, 0xd8, 
  0x17, 0xd3, 0xfa, 0x0b, 0x81, 0xd1, 0xdd, 0x42, 0x1b, 0x44, 0x1d, 0x03, 
  0x16, 0x0c, 0xfc, 0xfa, 0xf5, 0xed, 0x49, 0xf3, 0x10, 0x23, 0x7e, 0x23, 
  0xf4, 0xfc, 0xd4, 0xf4, 0x02, 0x10, 0x26, 0x2a, 0xe5, 0xa4, 0xec, 0x04, 
  0xe8, 0xf4, 0x15, 0x29, 0x14, 0xf9, 0x26, 0x0f, 0xd0, 0x0c, 0x0f, 0xfb, 
  0x30, 0x10, 0x44, 0xde, 0xdc, 0x21, 0x0a, 0x3b, 0x26, 0xea, 0x1e, 0x08, 
  0xda, 0x21, 0xe8, 0x25, 0x0f, 0x06, 0x7f, 0xc8, 0x1c, 0x18, 0x01, 0x17, 
  0xf8, 0x12, 0x4c, 0x05, 0x22, 0x2d, 0x29, 0x0b, 0xdc, 0x26, 0xe4, 0xfa, 
  0x0a, 0x36, 0xc8, 0xf4, 0x12, 0x1f, 0xd4, 0x2d, 0x03, 0x38, 0xdc, 0x2e, 
  0xf2, 0x06, 0xe5, 0xe3, 0xdc, 0xd7, 0xed, 0xeb, 0xff, 0x18, 0xf0, 0x1a, 
  0x12, 0xf8, 0xc4, 0xe5, 0x4b, 0x14, 0xdd, 0x6b, 0x11, 0xe9, 0x03, 0xf5, 
  0xd6, 0x03, 0xc4, 0xe5, 0x08, 0x81, 0x33, 0xfe, 0x2a, 0xe8, 0xfb, 0xee, 
  0xfa, 0x41, 0x24, 0x37, 0x27, 0x2b, 0xbb, 0xfc, 0xf4, 0xde, 0x08, 0x24, 
  0xce, 0x0e, 0xe9, 0x08, 0x58, 0x81, 0x0e, 0xd3, 0x29, 0x88, 0x20, 0x1b, 
  0xd5, 0x1a, 0x16, 0x08, 0x16, 0x1e, 0x6b, 0x2c, 0x00, 0x17, 0x93, 0x10, 
  0xe2, 0x54, 0xdf, 0xdf, 0xb8, 0xdf, 0xbd, 0xb9, 0x0f, 0xff, 0x0f, 0xb6, 
  0xff, 0x28, 0x08, 0x02, 0xf1, 0x12, 0x27, 0xeb, 0x56, 0xef, 0xea, 0x48, 
  0x09, 0x11, 0xf6, 0xf6, 0xd8, 0xd9, 0xfb, 0x17, 0xea, 0x46, 0xee, 0xe1, 
  0x13, 0x04, 0x18, 0xd9, 0x10, 0xe9, 0x1d, 0xb3, 0xba, 0x12, 0x5d, 0xbe, 
  0xf8, 0xd5, 0x81, 0x11, 0xf5, 0xe3, 0x06, 0x1e, 0x16, 0xa0, 0x13, 0xb8, 
  0x0c, 0xe4, 0x03, 0x3b, 0x23, 0xee, 0x1a, 0xe5, 0xc4, 0x05, 0xdf, 0xf1, 
  0xdc, 0xe3, 0x36, 0xf2, 0x3b, 0x2f, 0x02, 0xa5, 0xe6, 0xb7, 0xfd, 0x13, 
  0xe8, 0x2f, 0x29, 0xf3, 0x0b, 0xf0, 0x4f, 0xc1, 0x39, 0xf4, 0x82, 0x00, 
  0x00, 0x31, 0x07, 0xe4, 0xd7, 0x82, 0x0a, 0xde, 0x15, 0x20, 0x09, 0x0c, 
  0x30, 0x16, 0xdf, 0x05, 0xb0, 0xdc, 0x81, 0xf1, 0x42, 0x36, 0x0d, 0x30, 
  0x4d, 0x49, 0xc4, 0x45, 0xfe, 0xf1, 0xf3, 0xdc, 0x26, 0xc4, 0xfd, 0xd0, 
  0x09, 0x37, 0xb8, 0x02, 0xc8, 0x66, 0xcf, 0xfd, 0x7f, 0x2f, 0xc5, 0xf2, 
  0x2a, 0x07, 0xa1, 0xa9, 0x8d, 0x5a, 0xb2, 0x89, 0x2f, 0x8b, 0x36, 0x1a, 
  0x39, 0x3d, 0xfd, 0x12, 0x0a, 0x32, 0x1a, 0xfc, 0x1a, 0xdc, 0x18, 0x3f, 
  0xcf, 0x04, 0x0e, 0xfc, 0xfb, 0xd7, 0x05, 0x0b, 0xf8, 0xc6, 0xfe, 0x02, 
  0xf8, 0xf0, 0x08, 0xf8, 0x11, 0xfd, 0xd5, 0x16, 0xbe, 0x10, 0x21, 0x12, 
  0xf9, 0xee, 0x0d, 0x1e, 0x02, 0x81, 0xe9, 0x13, 0x0a, 0xe6, 0xf8, 0xb5, 
  0xf9, 0xf7, 0xfe, 0xe5, 0x0b, 0xf0, 0xef, 0x0f, 0x1f, 0x02, 0x0f, 0xf5, 
  0x46, 0xc6, 0x0b, 0xf2, 0x84, 0x38, 0x33, 0x11, 0xd9, 0x30, 0x2c, 0xd4, 
  0xe0, 0xfa, 0x0a, 0xe1, 0x08, 0xce, 0xf3, 0x32, 0x36, 0x29, 0x12, 0xf6, 
  0x25, 0xf0, 0x81, 0x15, 0x05, 0x9c, 0x24, 0x18, 0x24, 0x53, 0xff, 0x4a, 
  0xa8, 0xf2, 0xdf, 0x4f, 0x14, 0x1f, 0x15, 0xf9, 0xc3, 0xeb, 0xd8, 0xd2, 
  0xaf, 0xfb, 0x39, 0xc2, 0xf5, 0xd7, 0xeb, 0xf9, 0x20, 0xff, 0xd0, 0xe6, 
  0xdf, 0x1b, 0xa4, 0x33, 0x48, 0x3f, 0x62, 0xaa, 0xda, 0x2e, 0xe1, 0x0b, 
  0x01, 0x44, 0xd2, 0xcb, 0xb2, 0xe3, 0x00, 0x33, 0xe1, 0x46, 0x14, 0xe7, 
  0xcc, 0x2d, 0xcd, 0x81, 0xdb, 0xd7, 0x19, 0x2e, 0x4f, 0x19, 0xf0, 0x40, 
  0xf5, 0x24, 0xf5, 0xf2, 0x06, 0xeb, 0xf5, 0xbd, 0xe5, 0x94, 0xd7, 0xed, 
  0xda, 0xfa, 0xe6, 0x0f, 0xed, 0xda, 0x81, 0x46, 0x8d, 0x25, 0x55, 0x07, 
  0x21, 0x13, 0xe0, 0x0e, 0xcf, 0xb5, 0xda, 0xaa, 0x22, 0xc3, 0xe6, 0xcc, 
  0x39, 0x09, 0x32, 0xff, 0x30, 0x0a, 0x69, 0xd7, 0x07, 0xc9, 0xee, 0x32, 
  0xf0, 0x14, 0x42, 0x20, 0x49, 0xd7, 0xf0, 0x40, 0x03, 0xf2, 0xf4, 0x11, 
  0xd9, 0xe1, 0x0d, 0x25, 0xe0, 0x04, 0x40, 0x10, 0x1a, 0x01, 0xfc, 0x1b, 
  0xf1, 0x15, 0xd8, 0x4f, 0xdb, 0xf9, 0x38, 0x00, 0x04, 0x15, 0x25, 0x2f, 
  0x09, 0xe6, 0xe2, 0x81, 0x26, 0x13, 0x00, 0x09, 0x03, 0x18, 0xe1, 0x23, 
  0x88, 0x98, 0xe4, 0x17, 0xf1, 0xe2, 0x00, 0xb0, 0xb1, 0x30, 0x71, 0xa3, 
  0xd2, 0x3b, 0x50, 0x94, 0x05, 0x34, 0x59, 0x32, 0x31, 0xb4, 0x4a, 0x97, 
  0xfd, 0xbe, 0x4f, 0xca, 0xfe, 0x81, 0x38, 0x9a, 0xa2, 0x6c, 0xac, 0x0c, 
  0xc7, 0xe0, 0x87, 0xaf, 0xd3, 0x48, 0xed, 0x1b, 0xc8, 0x04, 0x89, 0x44, 
  0x27, 0xd4, 0xe4, 0x16, 0xfc, 0x06, 0x0d, 0x17, 0x20, 0xcf, 0xe9, 0xec, 
  0xe4, 0x15, 0xee, 0x00, 0xe5, 0xf0, 0x81, 0xa1, 0x1f, 0x0d, 0x51, 0xfd, 
  0x0e, 0xb5, 0x08, 0x36, 0x1b, 0xd5, 0x24, 0xdb, 0x05, 0x1e, 0x1b, 0x29, 
  0x17, 0xd5, 0x29, 0xd5, 0xd8, 0x0e, 0x65, 0x12, 0x04, 0xe5, 0xea, 0xd1, 
  0x19, 0xe3, 0x14, 0xfa, 0xcd, 0xff, 0xfc, 0x1d, 0xf8, 0x12, 0x10, 0xf0, 
  0x06, 0xfa, 0x10, 0x04, 0x02, 0xf2, 0x81, 0xbe, 0x1d, 0x02, 0x02, 0xfd, 
  0xfd, 0xf4, 0x2a, 0x13, 0xff, 0x0d, 0x12, 0x11, 0xec, 0x0e, 0x01, 0x16, 
  0xe3, 0xfd, 0xf6, 0xdc, 0x02, 0x0c, 0xfa, 0x02, 0xea, 0xf1, 0x09, 0x01, 
  0x03, 0xf0, 0x33, 0xda, 0xd8, 0x33, 0xd9, 0x17, 0x16, 0xfa, 0x04, 0x26, 
  0xec, 0xd9, 0xfe, 0x0a, 0xd5, 0x15, 0xba, 0xd4, 0xfe, 0x0c, 0xd2, 0x0d, 
  0xfb, 0xd7, 0x7f, 0x05, 0xd6, 0x48, 0x0d, 0xdc, 0xe6, 0x4e, 0xf2, 0x1c, 
  0xf0, 0xef, 0x05, 0x3e, 0x03, 0xf3, 0xd2, 0x14, 0xcf, 0x09, 0x0b, 0x16, 
  0x15, 0x03, 0x34, 0xf9, 0x25, 0x1a, 0xe1, 0x17, 0xee, 0x09, 0x18, 0x12, 
  0xfa, 0x20, 0x1f, 0x0b, 0xf9, 0xe7, 0x46, 0xcd, 0xd5, 0x1d, 0x81, 0xfe, 
  0x0d, 0xeb, 0xe5, 0x0c, 0xf5, 0x05, 0x35, 0x04, 0xe5, 0x27, 0x21, 0x02, 
  0xff, 0x10, 0xd8, 0x95, 0xda, 0x0f, 0x2d, 0x1c, 0x19, 0x3b, 0xef, 0xf7, 
  0x19, 0xed, 0xe1, 0xde, 0xe8, 0x36, 0xd9, 0xfb, 0x1e, 0x4a, 0xe5, 0xd0, 
  0x20, 0x00, 0xef, 0x39, 0xd3, 0x05, 0x7f, 0x56, 0x2d, 0x0d, 0xb9, 0xbc, 
  0x01, 0x31, 0x68, 0xdb, 0xf0, 0x70, 0xfd, 0x19, 0x0c, 0x0a, 0xfc, 0x1a, 
  0xf3, 0x40, 0x09, 0x04, 0x01, 0x37, 0xe1, 0xfa, 0xfc, 0xc9, 0x12, 0x0d, 
  0x01, 0x4a, 0xb2, 0xf9, 0x5b, 0xce, 0x05, 0xb8, 0xc2, 0x10, 0x2a, 0xcb, 
  0xc7, 0x2d, 0xbf, 0x0b, 0x62, 0x2c, 0x81, 0x6d, 0x02, 0xd2, 0x0a, 0xe8, 
  0xca, 0x38, 0x8f, 0x0b, 0xed, 0x85, 0xf6, 0x1a, 0xc7, 0x16, 0xf4, 0xb8, 
  0xfe, 0x1e, 0x16, 0x23, 0xe9, 0xc9, 0xe0, 0xfc, 0x15, 0xf8, 0x31, 0x18, 
  0xda, 0x29, 0xce, 0xf1, 0x14, 0x81, 0x28, 0xec, 0x16, 0xd1, 0x02, 0xf4, 
  0xf4, 0xdf, 0x10, 0xe9, 0x25, 0x1e, 0x1a, 0x0c, 0xaf, 0x01, 0xd7, 0xe1, 
  0x01, 0x18, 0xe0, 0xf8, 0x0b, 0xe8, 0x09, 0xfe, 0x0a, 0xa9, 0x27, 0x9c, 
  0xfa, 0xff, 0x18, 0xf0, 0xf7, 0x09, 0xf9, 0x16, 0x33, 0xfa, 0x17, 0x15, 
  0x04, 0xfa, 0xe1, 0x11, 0xa4, 0x4b, 0x22, 0x05, 0x1b, 0x11, 0xdc, 0x1c, 
  0xf8, 0x10, 0x07, 0xbe, 0x24, 0x26, 0x81, 0x41, 0xcf, 0xfd, 0xea, 0xb7, 
  0xd5, 0xeb, 0xf8, 0xf7, 0xf9, 0x0a, 0x30, 0x1c, 0x08, 0x38, 0x1f, 0x64, 
  0xcc, 0x03, 0x0a, 0xe1, 0x10, 0xec, 0xbb, 0x0f, 0x13, 0x24, 0x28, 0x04, 
  0xfe, 0x2c, 0xe6, 0xb5, 0xef, 0x41, 0x07, 0xed, 0xeb, 0xf0, 0xfb, 0xd7, 
  0xf8, 0xeb, 0x28, 0x38, 0x22, 0x0c, 0x79, 0x81, 0x1e, 0x20, 0x9c, 0xfc, 
  0xf9, 0x13, 0x92, 0x04, 0xef, 0xef, 0xfc, 0x17, 0x1e, 0x0e, 0x23, 0x02, 
  0xd9, 0x0d, 0xc6, 0xe1, 0xc8, 0xed, 0x34, 0xe9, 0x26, 0x04, 0xd2, 0x32, 
  0x25, 0x01, 0x1e, 0xcc, 0xc7, 0x1c, 0xed, 0x15, 0xea, 0x15, 0xee, 0xf5, 
  0xec, 0xf8, 0xde, 0x04, 0xf6, 0xe6, 0xfc, 0xdc, 0x1e, 0x0c, 0xa4, 0xf7, 
  0xea, 0x10, 0x32, 0x0b, 0xe7, 0x81, 0x1a, 0x17, 0x04, 0x17, 0x14, 0x25, 
  0xe8, 0xfc, 0x05, 0x07, 0xe9, 0x0c, 0x04, 0xe7, 0xec, 0x10, 0xfc, 0xed, 
  0x50, 0xf4, 0x0a, 0x12, 0xce, 0xe2, 0xef, 0x3b, 0xce, 0x02, 0xdd, 0xf1, 
  0xe3, 0x1e, 0xb9, 0x37, 0xcd, 0x08, 0x23, 0x7f, 0x51, 0x38, 0xf3, 0xe4, 
  0xe9, 0x3c, 0xdf, 0xe7, 0xf1, 0x2d, 0x11, 0x35, 0x2f, 0x29, 0x06, 0xea, 
  0xf0, 0x4b, 0x26, 0xdf, 0x09, 0x2f, 0x26, 0x0d, 0xcb, 0x14, 0x1f, 0x33, 
  0xe0, 0x00, 0xf4, 0xee, 0x0d, 0xff, 0xe7, 0x9a, 0xe7, 0x13, 0xfb, 0x14, 
  0x0d, 0xec, 0xaf, 0x22, 0x00, 0xee, 0x7f, 0xf6, 0x28, 0x11, 0x64, 0x04, 
  0xfd, 0x21, 0xc2, 0x8b, 0x09, 0x0a, 0xc2, 0x05, 0xe9, 0x4c, 0x10, 0x18, 
  0x09, 0x1a, 0xc4, 0x04, 0xe2, 0x22, 0xc6, 0xf7, 0x1b, 0x10, 0x0c, 0x12, 
  0xf5, 0xfa, 0x04, 0x0f, 0xe1, 0xed, 0xff, 0xf7, 0x09, 0x81, 0xef, 0xf2, 
  0x0a, 0x04, 0x0a, 0xf4, 0x0c, 0xf6, 0x05, 0x0d, 0x20, 0xf0, 0xed, 0xe2, 
  0xee, 0x1e, 0x12, 0xff, 0xec, 0xfb, 0xee, 0x0c, 0x05, 0x0b, 0xf3, 0x10, 
  0x16, 0x15, 0x0a, 0x1b, 0x0d, 0xf2, 0xc7, 0x11, 0xec, 0xfc, 0xf6, 0x10, 
  0x1e, 0x03, 0xe5, 0x1a, 0xcb, 0x05, 0x1b, 0x09, 0xfc, 0xe1, 0xfe, 0x13, 
  0xfe, 0xeb, 0xd8, 0xf4, 0x10, 0x14, 0x81, 0x18, 0x02, 0x19, 0x25, 0xce, 
  0xf8, 0x02, 0x1d, 0x04, 0xd8, 0xde, 0xda, 0xe1, 0xf2, 0x18, 0xe8, 0xfe, 
  0xf8, 0x12, 0x1b, 0xfe, 0x0d, 0xeb, 0x05, 0x0d, 0x0a, 0xe0, 0xfb, 0x04, 
  0x04, 0x14, 0x5e, 0x10, 0x7f, 0xfe, 0x15, 0x36, 0x1c, 0x13, 0x0f, 0x36, 
  0xf2, 0xd6, 0x10, 0xe4, 0x27, 0xfa, 0x10, 0xb1, 0x0d, 0xfb, 0x42, 0x1d, 
  0xce, 0xbf, 0xeb, 0x0c, 0x06, 0xd4, 0x3a, 0xf8, 0x23, 0xe6, 0x16, 0xef, 
  0x18, 0xdb, 0xf0, 0xdc, 0x07, 0xe6, 0x2f, 0x27, 0x42, 0x18, 0xf4, 0xae, 
  0x1d, 0x0d, 0xf4, 0x14, 0x81, 0xe8, 0x02, 0x27, 0xfc, 0xe9, 0xf3, 0xf9, 
  0x01, 0xfa, 0x17, 0x22, 0xe6, 0x06, 0x9f, 0xe3, 0xff, 0xff, 0x28, 0xf7, 
  0xef, 0x1a, 0xe0, 0x16, 0xf4, 0x0d, 0x04, 0x03, 0x06, 0x0a, 0x10, 0x1c, 
  0x0c, 0x18, 0xf9, 0xef, 0xfb, 0x10, 0xe3, 0xfb, 0xfc, 0xf0, 0xfa, 0xfe, 
  0xeb, 0x13, 0xf0, 0xef, 0x6b, 0xfa, 0x34, 0xa5, 0x04, 0x1b, 0xcd, 0x1d, 
  0xf1, 0xec, 0xab, 0xde, 0xb9, 0xdc, 0x27, 0x7f, 0xf6, 0x1d, 0x22, 0x24, 
  0x11, 0xfd, 0x94, 0x0b, 0x03, 0x00, 0xf4, 0x09, 0x00, 0x0b, 0xe6, 0xce, 
  0xd2, 0x2a, 0x2b, 0xf9, 0x1c, 0x30, 0x00, 0xea, 0x22, 0xc5, 0xdb, 0xfb, 
  0x2f, 0xe9, 0xd0, 0x16, 0xee, 0xc7, 0x1b, 0xfd, 0xeb, 0x81, 0x1a, 0x1d, 
  0x27, 0x0d, 0x06, 0x06, 0x0a, 0x2d, 0x8e, 0x25, 0x0c, 0x19, 0x39, 0xa2, 
  0x04, 0x10, 0x34, 0xd4, 0xf7, 0xee, 0x0b, 0xc2, 0x2d, 0xc1, 0xfd, 0x1a, 
  0xff, 0x09, 0x30, 0x23, 0xed, 0x09, 0xf3, 0xf9, 0x14, 0xf1, 0x24, 0x1a, 
  0xcd, 0xaa, 0xd3, 0x0a, 0xb5, 0x1d, 0xec, 0x8a, 0xdd, 0x01, 0xdd, 0xf0, 
  0xe9, 0x0c, 0x30, 0x05, 0xf3, 0xe7, 0x81, 0x0f, 0xcd, 0xed, 0xdf, 0xbe, 
  0x19, 0xe9, 0x9f, 0x12, 0x2a, 0x0e, 0xd5, 0xf0, 0x10, 0x07, 0xf3, 0xf2, 
  0xef, 0xee, 0x05, 0xc3, 0xef, 0xfc, 0x92, 0x04, 0x0a, 0xfa, 0xe2, 0xc1, 
  0x1d, 0xcf, 0xf4, 0x05, 0x22, 0x20, 0xea, 0x3a, 0x28, 0x29, 0x28, 0xdd, 
  0xda, 0xea, 0x29, 0xe2, 0xe2, 0xb2, 0x37, 0x4c, 0xd1, 0x17, 0xef, 0x33, 
  0x2a, 0xce, 0x55, 0x4e, 0x21, 0x05, 0xee, 0x0d, 0xdf, 0x09, 0xd7, 0x19, 
  0xe1, 0xb5, 0xe2, 0x3d, 0xac, 0x14, 0x81, 0xf1, 0x08, 0x00, 0xf9, 0xbc, 
  0xed, 0x18, 0xcb, 0xf9, 0xf7, 0x81, 0xec, 0x08, 0x0b, 0x28, 0xe9, 0x11, 
  0xee, 0xf2, 0xd8, 0xf3, 0x0a, 0x12, 0xff, 0x02, 0xf0, 0x0a, 0x35, 0x91, 
  0xec, 0x0f, 0xcd, 0xfe, 0xd4, 0x18, 0x0f, 0x31, 0xf5, 0xce, 0xeb, 0x05, 
  0xf5, 0xf9, 0xed, 0x3b, 0x1b, 0xe9, 0x1c, 0xec, 0xec, 0xd4, 0xfe, 0xfc, 
  0x09, 0x4e, 0xec, 0xdb, 0xd7, 0x3e, 0x14, 0xc2, 0x18, 0xbf, 0x2b, 0x10, 
  0x1f, 0x10, 0xb3, 0xec, 0x5b, 0x52, 0xbf, 0x67, 0xca, 0xeb, 0xae, 0x81, 
  0xef, 0x0e, 0x32, 0xce, 0xae, 0xfe, 0xd8, 0x24, 0x23, 0x23, 0x11, 0xbc, 
  0x01, 0x37, 0xe9, 0x3a, 0x13, 0x13, 0xdc, 0x1f, 0x2a, 0x1d, 0xe4, 0x58, 
  0xea, 0xd1, 0x18, 0x0c, 0x0d, 0x81, 0xff, 0x00, 0xe2, 0x00, 0xf6, 0xe8, 
  0xe9, 0x1b, 0x2e, 0x16, 0xfc, 0xf3, 0x14, 0xf5, 0xe7, 0xfd, 0xce, 0x1c, 
  0xe1, 0xe9, 0xe9, 0x3c, 0x47, 0x44, 0xcf, 0x0e, 0x06, 0xe2, 0xf2, 0x19, 
  0x29, 0xe9, 0xda, 0xb6, 0xd9, 0x15, 0x0a, 0x05, 0xdd, 0x13, 0xe4, 0x05, 
  0xff, 0x11, 0xd1, 0x09, 0xe1, 0x08, 0x0d, 0xc4, 0xfa, 0x22, 0x15, 0x0b, 
  0xeb, 0x06, 0x04, 0x07, 0xfb, 0xf0, 0x81, 0x2b, 0xee, 0x0e, 0x1a, 0xa0, 
  0x07, 0x1f, 0x96, 0xf5, 0xf3, 0xf9, 0xd6, 0x0c, 0x0c, 0x3e, 0xef, 0xdb, 
  0x16, 0x08, 0x1d, 0xf2, 0xe7, 0x07, 0xcb, 0xfa, 0x1d, 0x15, 0x02, 0x15, 
  0xd4, 0xe0, 0xab, 0xc8, 0x0e, 0xfc, 0x22, 0xc0, 0x03, 0xff, 0xfa, 0xfa, 
  0x21, 0xea, 0xdc, 0x06, 0xcd, 0x16, 0x44, 0x00, 0x29, 0xe3, 0x81, 0x24, 
  0x17, 0x14, 0xc2, 0xd9, 0x01, 0x10, 0xc0, 0xf3, 0xd7, 0x41, 0x1c, 0xe1, 
  0xfa, 0xfc, 0xe8, 0x09, 0x12, 0xeb, 0x36, 0xfc, 0x8e, 0xd1, 0xeb, 0xfa, 
  0xde, 0xe4, 0x17, 0x04, 0x11, 0x09, 0x17, 0x24, 0xeb, 0xec, 0x01, 0xf8, 
  0x05, 0xf7, 0x01, 0x06, 0x09, 0xf4, 0x36, 0x81, 0xfe, 0xe9, 0x0a, 0x2b, 
  0xe6, 0x1a, 0xf1, 0x0e, 0xd4, 0x1a, 0x00, 0xfa, 0xef, 0x19, 0x18, 0x0a, 
  0x03, 0xf5, 0xf7, 0x1e, 0x12, 0xe5, 0xd8, 0xfa, 0x23, 0x2b, 0x1b, 0x08, 
  0xe6, 0xe9, 0xb8, 0x88, 0xb8, 0xff, 0x67, 0xa8, 0xf3, 0xb9, 0xdf, 0xa1, 
  0xc5, 0x02, 0x3f, 0xde, 0x41, 0xe0, 0xca, 0x19, 0x40, 0xd7, 0xa1, 0xb6, 
  0x22, 0xe0, 0xaa, 0x81, 0x12, 0xd8, 0x1a, 0xae, 0x88, 0x11, 0x22, 0xca, 
  0x5c, 0xff, 0xe6, 0xee, 0x95, 0x62, 0xa8, 0x6b, 0xad, 0x0b, 0x40, 0x66, 
  0x2f, 0x24, 0x0a, 0xf6, 0xdb, 0x27, 0x0e, 0x1a, 0x17, 0x1e, 0x01, 0x05, 
  0x10, 0xed, 0xfc, 0x1a, 0x1c, 0xee, 0xea, 0x03, 0x08, 0x21, 0xb0, 0x18, 
  0x0f, 0x17, 0xcd, 0x22, 0xf3, 0x81, 0x2c, 0x26, 0xdf, 0x11, 0x15, 0x08, 
  0xd9, 0xe5, 0xdf, 0xc4, 0xea, 0x0c, 0xe0, 0xf4, 0x1d, 0xfe, 0x18, 0xe8, 
  0xe0, 0xff, 0xe7, 0x0c, 0x25, 0xea, 0xea, 0xd7, 0x13, 0x06, 0xed, 0x19, 
  0x0b, 0xfe, 0x01, 0x10, 0xed, 0x06, 0x6a, 0x27, 0xfb, 0x0b, 0xcb, 0xee, 
  0xfc, 0x08, 0xd1, 0x0e, 0xff, 0xeb, 0xf4, 0x07, 0xf6, 0xda, 0xef, 0xf2, 
  0xf4, 0x01, 0x09, 0x81, 0x01, 0x0e, 0xe5, 0x06, 0x16, 0xf6, 0x06, 0xf1, 
  0xfe, 0x3e, 0x19, 0xe0, 0xc5, 0x10, 0xda, 0xe7, 0x11, 0xf7, 0xe4, 0x16, 
  0x22, 0x1f, 0xff, 0x01, 0x20, 0x01, 0xc7, 0xbd, 0xe1, 0x0d, 0xf1, 0x33, 
  0x15, 0xe8, 0xb1, 0xeb, 0xf2, 0x81, 0x1b, 0x11, 0x35, 0x1b, 0x0a, 0x1c, 
  0xe3, 0x2f, 0xf8, 0x82, 0xfc, 0x01, 0x0b, 0x01, 0x10, 0x33, 0xe3, 0xe6, 
  0x35, 0x0b, 0xea, 0x2b, 0x3f, 0xa1, 0xea, 0x09, 0x31, 0x52, 0xdd, 0x0f, 
  0x35, 0x45, 0xf4, 0x26, 0x1e, 0x0f, 0x42, 0x03, 0x41, 0xde, 0x7f, 0x53, 
  0xcd, 0xc5, 0x91, 0xe9, 0x41, 0xbc, 0x2e, 0x2b, 0x33, 0x16, 0x1c, 0xf9, 
  0xc5, 0xd4, 0xe2, 0x12, 0xcd, 0x1e, 0x36, 0xc8, 0xd0, 0xf9, 0x14, 0xc6, 
  0xb2, 0x1e, 0x81, 0xf3, 0xee, 0x0a, 0x0f, 0xcd, 0x01, 0xa5, 0x10, 0xe8, 
  0xd6, 0xe0, 0x38, 0x12, 0xcf, 0xea, 0xf0, 0x4f, 0xf7, 0xe5, 0xc5, 0x55, 
  0x0b, 0x3a, 0x7a, 0xff, 0x06, 0xa4, 0xc8, 0x00, 0xdb, 0x87, 0xf3, 0x9f, 
  0xd8, 0xf1, 0xfa, 0x6c, 0x3d, 0x0a, 0xbf, 0x30, 0xb7, 0xc5, 0x26, 0x20, 
  0x05, 0xee, 0x14, 0xf8, 0x16, 0xf1, 0xff, 0x28, 0x05, 0x04, 0xe6, 0x1b, 
  0xf7, 0xf5, 0xe3, 0x13, 0x0d, 0xfe, 0x09, 0xf7, 0xfd, 0xe5, 0x81, 0x20, 
  0xed, 0xef, 0xe9, 0x0d, 0x07, 0xb7, 0x34, 0x2a, 0xea, 0x04, 0xee, 0x2a, 
  0x0b, 0xef, 0xd0, 0x1a, 0xcf, 0xfa, 0xc7, 0xf8, 0xea, 0x15, 0x05, 0xee, 
  0x1f, 0xf3, 0x26, 0xe7, 0x2d, 0xed, 0x1f, 0x1a, 0xfa, 0x00, 0x03, 0x14, 
  0x25, 0xe9, 0xfc, 0x0a, 0xeb, 0x08, 0x1d, 0x85, 0x0c, 0x01, 0x05, 0x2f, 
  0x0f, 0xef, 0x0c, 0xb8, 0x09, 0x05, 0x11, 0xe1, 0xe5, 0x18, 0x0a, 0x3a, 
  0xeb, 0xfe, 0xe8, 0x81, 0xde, 0x21, 0x33, 0xdd, 0x12, 0x2e, 0xeb, 0x0a, 
  0x33, 0xad, 0x18, 0xe1, 0xcf, 0x3f, 0x11, 0x1d, 0x27, 0x04, 0xe6, 0x0a, 
  0x13, 0xdf, 0x1a, 0x30, 0xa4, 0xf4, 0xb0, 0xb8, 0xfe, 0xf5, 0x90, 0x29, 
  0xd5, 0x09, 0x5c, 0xf1, 0x12, 0x21, 0x0e, 0xd5, 0xee, 0x3d, 0xfd, 0xec, 
  0x02, 0xde, 0xef, 0x63, 0x2a, 0x0c, 0x81, 0x15, 0xc9, 0xe8, 0xdc, 0xd1, 
  0x02, 0x21, 0xc8, 0xfe, 0xab, 0x22, 0xdc, 0xad, 0x0c, 0xf6, 0xdc, 0xf4, 
  0x25, 0xf7, 0xe4, 0x2a, 0x1b, 0x02, 0xb3, 0x10, 0xce, 0xf2, 0x43, 0x81, 
  0xd8, 0x28, 0xd6, 0xf5, 0xfa, 0x0d, 0xbd, 0x37, 0xf5, 0x1f, 0x29, 0xbd, 
  0xdc, 0x18, 0x12, 0x3d, 0x06, 0xe1, 0x00, 0x23, 0x29, 0xe1, 0x15, 0xe0, 
  0xc7, 0xa7, 0xe5, 0x5d, 0xde, 0x14, 0xe1, 0xa6, 0xf5, 0x32, 0xfe, 0x70, 
  0x37, 0x2d, 0x49, 0x91, 0x9e, 0x9a, 0xcb, 0x43, 0xaa, 0x08, 0xf2, 0x81, 
  0x25, 0x55, 0x17, 0x14, 0xd1, 0xc8, 0x97, 0xe6, 0x9c, 0x30, 0xcd, 0x5b, 
  0x32, 0x53, 0x88, 0xdf, 0xe2, 0x3d, 0xe9, 0xeb, 0x0d, 0xc0, 0x5a, 0x3f, 
  0xbb, 0x1a, 0x10, 0xf1, 0x45, 0x39, 0x31, 0x18, 0xcf, 0xee, 0xe3, 0xf2, 
  0xdd, 0xf4, 0x01, 0x48, 0x1c, 0x33, 0x63, 0xb4, 0x04, 0x24, 0x05, 0x57, 
  0x14, 0xdd, 0x81, 0xeb, 0xbe, 0x19, 0xd7, 0xcb, 0x01, 0x1b, 0x0a, 0xea, 
  0x2b, 0x23, 0xcc, 0x85, 0xc8, 0x31, 0xcc, 0x0d, 0x3d, 0x4f, 0x31, 0xeb, 
  0xe7, 0x17, 0xdf, 0x04, 0x44, 0x93, 0x1b, 0xe0, 0xfc, 0xf3, 0xf7, 0x1d, 
  0xe5, 0x09, 0x1e, 0x05, 0x0e, 0x10, 0x7f, 0x1d, 0xe7, 0xfc, 0xbe, 0xfd, 
  0x09, 0xdc, 0xe1, 0xe8, 0xe6, 0xd0, 0x0b, 0x15, 0xe7, 0xaa, 0x05, 0x09, 
  0x1b, 0xdf, 0x16, 0xfd, 0x14, 0x14, 0x0c, 0x03, 0xf4, 0x08, 0x17, 0xff, 
  0x36, 0xeb, 0xfe, 0xde, 0x3b, 0xdc, 0xf2, 0xfe, 0xf0, 0x0c, 0x1f, 0x11, 
  0xea, 0x0b, 0xe0, 0xbe, 0x28, 0xfd, 0x32, 0x7f, 0x05, 0x2a, 0x3f, 0xb9, 
  0x2c, 0xde, 0xf1, 0x14, 0x0e, 0xe3, 0x12, 0xa9, 0x1d, 0x02, 0xfa, 0x0e, 
  0x20, 0xe1, 0x28, 0xe9, 0x2c, 0xf0, 0x61, 0x2b, 0xf8, 0xec, 0xf8, 0x08, 
  0x1d, 0x18, 0xce, 0xd6, 0x1c, 0xdd, 0xeb, 0x99, 0xd5, 0x4f, 0xd8, 0x00, 
  0xd3, 0x08, 0xf6, 0xdc, 0xea, 0x3d, 0x2d, 0x5d, 0xdb, 0xee, 0x2a, 0xc1, 
  0xf1, 0xfc, 0x81, 0xe6, 0xdf, 0x01, 0xe0, 0xd7, 0x26, 0x05, 0x27, 0x0f, 
  0x17, 0x1e, 0x19, 0xf3, 0xe8, 0x06, 0x15, 0xdd, 0x1e, 0x17, 0xd6, 0x4d, 
  0x45, 0x1c, 0x00, 0x10, 0x45, 0xd4, 0xc4, 0xc5, 0xcb, 0x29, 0x3a, 0x31, 
  0xcf, 0x31, 0xcf, 0x06, 0x3f, 0xe8, 0x24, 0x0e, 0xe5, 0x29, 0x7f, 0x74, 
  0x0e, 0xf2, 0x33, 0x27, 0x2a, 0x04, 0x06, 0xf5, 0x11, 0x4a, 0xd5, 0xf0, 
  0x12, 0xce, 0x0e, 0xdf, 0xf4, 0xeb, 0xc5, 0x30, 0x11, 0xc7, 0xd4, 0xd9, 
  0x34, 0x3b, 0x29, 0x25, 0xad, 0x4b, 0xcf, 0x10, 0xf2, 0x14, 0x2a, 0x1f, 
  0xdb, 0xdc, 0xcf, 0xd6, 0x31, 0xf0, 0xfd, 0xd2, 0x00, 0xe6, 0x0b, 0xf9, 
  0x14, 0x35, 0x81, 0xed, 0xe8, 0x04, 0x3c, 0x2c, 0xf5, 0xf4, 0x1a, 0x4b, 
  0xf0, 0xd4, 0xdf, 0x9f, 0x02, 0x1a, 0xd7, 0x33, 0x32, 0x29, 0xce, 0xe5, 
  0xbe, 0x15, 0xeb, 0xf0, 0x15, 0x81, 0x09, 0xdc, 0xfa, 0xf3, 0xfa, 0xec, 
  0x0d, 0xf8, 0x1c, 0x12, 0x20, 0x12, 0x69, 0xcb, 0x18, 0x1a, 0x19, 0x20, 
  0xe7, 0x0f, 0xc8, 0xa7, 0xcd, 0xf5, 0xc9, 0xf9, 0xf5, 0x10, 0xeb, 0x23, 
  0x0c, 0xf7, 0xeb, 0x9e, 0xe7, 0xff, 0x21, 0xfb, 0x32, 0xff, 0x10, 0x18, 
  0x2a, 0x05, 0xf0, 0x02, 0x81, 0x01, 0xfe, 0x13, 0x14, 0x11, 0x00, 0xff, 
  0xe9, 0x17, 0xeb, 0x1a, 0x11, 0x10, 0xba, 0x18, 0x10, 0xfe, 0xdd, 0xfb, 
  0x06, 0x17, 0x2a, 0x0b, 0x16, 0xda, 0x06, 0x08, 0x02, 0x11, 0x03, 0x19, 
  0xeb, 0x01, 0x0e, 0xfa, 0xf5, 0xf9, 0xfc, 0x01, 0xe0, 0x0b, 0x15, 0x13, 
  0x28, 0xcd, 0x15, 0xbd, 0xd1, 0x81, 0x33, 0x23, 0xe2, 0x3b, 0xcb, 0x1d, 
  0x01, 0xf0, 0x37, 0x1a, 0x32, 0xe2, 0x3c, 0xeb, 0x4b, 0x22, 0xd0, 0x1e, 
  0x19, 0x3c, 0xb5, 0x45, 0xe5, 0x0e, 0xf0, 0x27, 0xf3, 0x07, 0x33, 0xe7, 
  0xf0, 0xec, 0xeb, 0x2c, 0xed, 0x05, 0xe9, 0x0e, 0xb7, 0xf8, 0x2f, 0xe7, 
  0xc0, 0x2a, 0xb1, 0x24, 0xf1, 0x8a, 0xd2, 0xf5, 0x06, 0xd0, 0x39, 0xc7, 
  0x32, 0x2e, 0xf0, 0xe8, 0x36, 0x0c, 0x04, 0x69, 0xc6, 0x08, 0x2d, 0xd9, 
  0x2d, 0x47, 0xf2, 0xdf, 0xd9, 0xef, 0xfe, 0xd6, 0xdf, 0xba, 0x2b, 0x81, 
  0x2a, 0xee, 0x1b, 0x20, 0x1f, 0xcf, 0x0e, 0x2d, 0x11, 0xca, 0x07, 0x0d, 
  0x1a, 0xeb, 0xff, 0xff, 0x04, 0x00, 0x00, 0x00, 0x00, 0x01, 0x00, 0x00, 
  0xf3, 0xff, 0xff, 0xff, 0x4b, 0x00, 0x00, 0x00, 0x0d, 0x00, 0x00, 0x00, 
  0xe6, 0xff, 0xff, 0xff, 0xb2, 0xff, 0xff, 0xff, 0x1a, 0x00, 0x00, 0x00, 
  0x2e, 0x00, 0x00, 0x00, 0x80, 0x00, 0x00, 0x00, 0xe9, 0xff, 0xff, 0xff, 
  0x06, 0x00, 0x00, 0x00, 0x98, 0x00, 0x00, 0x00, 0xf0, 0xff, 0xff, 0xff, 
  0x9d, 0xff, 0xff, 0xff, 0x58, 0x00, 0x00, 0x00, 0x08, 0x00, 0x00, 0x00, 
  0xfe, 0xff, 0xff, 0xff, 0xf5, 0xff, 0xff, 0xff, 0x7b, 0xff, 0xff, 0xff, 
  0xe4, 0xff, 0xff, 0xff, 0xe7, 0xff, 0xff, 0xff, 0xed, 0xff, 0xff, 0xff, 
  0x4a, 0x00, 0x00, 0x00, 0x36, 0x00, 0x00, 0x00, 0x16, 0x00, 0x00, 0x00, 
  0x0a, 0x00, 0x00, 0x00, 0x15, 0x00, 0x00, 0x00, 0xe5, 0xff, 0xff, 0xff, 
  0x7b, 0x00, 0x00, 0x00, 0xe6, 0xff, 0xff, 0xff, 0x11, 0x00, 0x00, 0x00, 
  0xf1, 0xff, 0xff, 0xff, 0xb8, 0xff, 0xff, 0xff, 0x1e, 0x00, 0x00, 0x00, 
  0xfb, 0xff, 0xff, 0xff, 0x37, 0x00, 0x00, 0x00, 0xa1, 0xff, 0xff, 0xff, 
  0x86, 0xff, 0xff, 0xff, 0x05, 0x00, 0x00, 0x00, 0x85, 0x00, 0x00, 0x00, 
  0xa2, 0xff, 0xff, 0xff, 0x09, 0x00, 0x00, 0x00, 0x26, 0x00, 0x00, 0x00, 
  0x12, 0x00, 0x00, 0x00, 0xf8, 0xff, 0xff, 0xff, 0xf0, 0xff, 0xff, 0xff, 
  0xfc, 0xff, 0xff, 0xff, 0x13, 0x00, 0x00, 0x00, 0xb3, 0xff, 0xff, 0xff, 
  0x2d, 0x00, 0x00, 0x00, 0xcb, 0xff, 0xff, 0xff, 0x07, 0x00, 0x00, 0x00, 
  0xc6, 0xff, 0xff, 0xff, 0xfe, 0xff, 0xff, 0xff, 0xfd, 0xff, 0xff, 0xff, 
  0x19, 0x00, 0x00, 0x00, 0xd5, 0xff, 0xff, 0xff, 0xe4, 0xff, 0xff, 0xff, 
  0x43, 0x00, 0x00, 0x00, 0x9f, 0xff, 0xff, 0xff, 0xf7, 0xff, 0xff, 0xff, 
  0xfc, 0xff, 0xff, 0xff, 0x26, 0x00, 0x00, 0x00, 0x2c, 0x00, 0x00, 0x00, 
  0x36, 0x00, 0x00, 0x00, 0x26, 0xec, 0xff, 0xff, 0x04, 0x00, 0x00, 0x00, 
  0x00, 0x10, 0x00, 0x00, 0x09, 0xf3, 0xd1, 0x1c, 0x0b, 0xea, 0x14, 0x3d, 
  0xd2, 0x24, 0xd5, 0xf9, 0x3d, 0xee, 0x1e, 0x14, 0xe7, 0x28, 0x65, 0xf5, 
  0xe3, 0x09, 0x29, 0xe4, 0x1d, 0xe4, 0xd6, 0xe9, 0xea, 0xe9, 0xe6, 0x09, 
  0x49, 0x11, 0xde, 0x13, 0xf2, 0x06, 0x46, 0x3b, 0x17, 0x81, 0xf7, 0xf3, 
  0xe5, 0x1e, 0x07, 0x04, 0xc3, 0xe5, 0xc5, 0x16, 0x24, 0x17, 0x08, 0x06, 
  0xeb, 0x16, 0x23, 0xfe, 0x00, 0x04, 0xcd, 0xd9, 0xeb, 0x0d, 0x15, 0xaf, 
  0xf7, 0xf7, 0x02, 0xcb, 0x17, 0xe9, 0x12, 0x81, 0xf8, 0xf8, 0x17, 0x0a, 
  0x10, 0x10, 0x2d, 0xed, 0xe5, 0xf9, 0x03, 0xec, 0x18, 0xfc, 0xe9, 0x03, 
  0xf5, 0x0b, 0x00, 0x0e, 0x17, 0x03, 0x1c, 0x04, 0xe5, 0x04, 0x09, 0xfb, 
  0x0f, 0x2d, 0xe1, 0xea, 0xfe, 0x09, 0xe9, 0x21, 0x20, 0x1e, 0xf3, 0xdd, 
  0x09, 0xf9, 0xd3, 0xe8, 0x10, 0x1a, 0x03, 0xf9, 0xf5, 0x15, 0x01, 0xf5, 
  0xf2, 0xf6, 0x16, 0x1c, 0x30, 0x0d, 0xdc, 0xdf, 0x2c, 0x14, 0x04, 0x06, 
  0xd2, 0xe7, 0x16, 0xfd, 0x11, 0xfd, 0xd4, 0xeb, 0x1b, 0x14, 0x03, 0xe2, 
  0xf4, 0x02, 0xe4, 0xe8, 0x48, 0x22, 0x29, 0x15, 0xb6, 0x14, 0x1a, 0x17, 
  0x3b, 0x33, 0xf8, 0xef, 0xf5, 0x81, 0xdf, 0xd7, 0x3a, 0xe7, 0x09, 0xf8, 
  0x47, 0x53, 0x07, 0xf0, 0x21, 0x17, 0x14, 0xc3, 0xea, 0x1d, 0x21, 0xfa, 
  0xf0, 0xe7, 0x29, 0xea, 0x1a, 0xe7, 0xee, 0x36, 0xfc, 0xee, 0x0e, 0x04, 
  0xf6, 0x0a, 0x1b, 0x29, 0x22, 0x22, 0xef, 0xf6, 0x13, 0xf0, 0x55, 0xf7, 
  0x04, 0x1a, 0x10, 0x26, 0xf8, 0x04, 0xfe, 0x15, 0xe8, 0xe1, 0x0a, 0xf5, 
  0x20, 0x0e, 0xf6, 0xe9, 0x09, 0x0c, 0xe8, 0x15, 0x14, 0x81, 0xe4, 0x12, 
  0xdb, 0x20, 0xf7, 0xe7, 0x09, 0xbc, 0xd1, 0x24, 0xe9, 0xf2, 0xfd, 0x22, 
  0xea, 0x17, 0x0c, 0xec, 0xf5, 0xf3, 0xc6, 0x19, 0x31, 0x97, 0xda, 0x20, 
  0x48, 0x39, 0x29, 0x2a, 0x44, 0xf6, 0xd9, 0x2c, 0x57, 0x39, 0xe6, 0xa7, 
  0x4b, 0x8b, 0x3a, 0x07, 0xa1, 0x27, 0xf6, 0x24, 0x1b, 0xcc, 0xc6, 0x81, 
  0x1a, 0x9c, 0xbd, 0x9a, 0x71, 0x86, 0x29, 0xfd, 0x1c, 0x6a, 0x3e, 0x90, 
  0xd1, 0xd6, 0xb7, 0xcf, 0xd2, 0xde, 0xcb, 0xaf, 0x29, 0xdb, 0xef, 0x85, 
  0xea, 0x67, 0x4f, 0xfc, 0x46, 0xf5, 0xfe, 0xda, 0x9b, 0x1f, 0xb0, 0x00, 
  0x1d, 0xff, 0x17, 0xa2, 0xe7, 0xd7, 0xf4, 0xf9, 0xbd, 0xbf, 0x33, 0xf8, 
  0xea, 0x81, 0xe0, 0xd3, 0x2b, 0xf1, 0xec, 0x13, 0xed, 0x27, 0x04, 0x03, 
  0xed, 0xcb, 0x5d, 0x3b, 0xb1, 0x18, 0xf3, 0xd6, 0x0d, 0x36, 0x29, 0x0c, 
  0xfa, 0x93, 0x36, 0x2d, 0x11, 0xff, 0xff, 0xed, 0x15, 0x2d, 0x36, 0xc1, 
  0xa6, 0xcb, 0xe9, 0x29, 0x1d, 0xdf, 0x02, 0xd4, 0xfc, 0x3a, 0x34, 0xeb, 
  0xc7, 0x2d, 0x2d, 0xf9, 0xfa, 0x02, 0x11, 0x63, 0x16, 0xfb, 0x00, 0x0b, 
  0xe7, 0x16, 0x05, 0xaf, 0x04, 0x2f, 0xf9, 0x2e, 0xf3, 0x16, 0xe7, 0xfc, 
  0x12, 0x22, 0xca, 0xcf, 0x08, 0x23, 0xc6, 0xfa, 0x25, 0x0d, 0x07, 0x00, 
  0x04, 0x16, 0x14, 0x1f, 0xe4, 0xa0, 0x15, 0xea, 0xf4, 0x81, 0xfe, 0xe1, 
  0x1c, 0x2d, 0xf2, 0x03, 0xb9, 0x08, 0xfe, 0x0a, 0x15, 0xe6, 0xf1, 0xf2, 
  0x01, 0x0a, 0x1e, 0x17, 0x38, 0xe1, 0xb2, 0xe4, 0xb4, 0xed, 0x2f, 0xcf, 
  0xd7, 0x02, 0x18, 0x25, 0xea, 0xee, 0x17, 0x26, 0x24, 0x0e, 0x2f, 0x36, 
  0x10, 0xf3, 0x90, 0x0d, 0x06, 0xec, 0xda, 0xcf, 0xd8, 0x20, 0x18, 0xe3, 
  0xa2, 0xf5, 0xeb, 0x24, 0xca, 0x1a, 0xf1, 0xba, 0xf4, 0x81, 0xee, 0x4b, 
  0x05, 0x68, 0x10, 0x11, 0xf5, 0x22, 0xfa, 0x09, 0x0b, 0xbe, 0xfa, 0x06, 
  0xbe, 0x23, 0x07, 0x2f, 0x3d, 0x34, 0x35, 0x00, 0x3d, 0xea, 0x8e, 0x0e, 
  0x0c, 0x18, 0x1c, 0x4b, 0x0b, 0xe1, 0xfb, 0xfb, 0xc5, 0xfb, 0xf2, 0xdd, 
  0x1d, 0xdb, 0x18, 0x02, 0x07, 0xe5, 0x1f, 0xe6, 0xeb, 0x1c, 0xfa, 0x0e, 
  0xef, 0xf9, 0xfb, 0x13, 0x42, 0x18, 0x10, 0xf8, 0x02, 0xfb, 0xf7, 0xff, 
  0x12, 0xd7, 0x21, 0xf7, 0x0f, 0x81, 0xe6, 0x18, 0xcb, 0x24, 0xbc, 0x25, 
  0xf8, 0xfa, 0x01, 0x11, 0x30, 0xf4, 0xe0, 0xf2, 0x06, 0x15, 0xfa, 0xf7, 
  0x33, 0x02, 0xef, 0xff, 0xcc, 0x32, 0x1e, 0xdb, 0xd4, 0xec, 0x23, 0x2d, 
  0xf4, 0xe1, 0x3a, 0x08, 0x59, 0xaf, 0x06, 0x20, 0x16, 0xf4, 0x1d, 0x04, 
  0xe4, 0x21, 0x23, 0xf6, 0x2c, 0xcb, 0x01, 0xf3, 0x81, 0xf9, 0x2d, 0x04, 
  0xc6, 0x1d, 0x03, 0x0c, 0x1a, 0xa8, 0xf5, 0xf4, 0x31, 0x3d, 0x08, 0xf1, 
  0xde, 0x2a, 0xb0, 0x08, 0xb4, 0xf2, 0xdc, 0x1f, 0x0c, 0x1d, 0xe8, 0xe8, 
  0x09, 0x35, 0xfb, 0xb6, 0x4c, 0x0c, 0xc0, 0x2f, 0x9c, 0xbe, 0x0a, 0x26, 
  0x2f, 0xa9, 0xae, 0xcd, 0xe9, 0x2e, 0x05, 0x77, 0x09, 0xa1, 0xd8, 0x1c, 
  0xf3, 0x7a, 0x97, 0x85, 0x9a, 0x3c, 0x97, 0xd4, 0xb5, 0x57, 0x85, 0x83, 
  0xef, 0xff, 0xae, 0xa4, 0x6e, 0x81, 0x20, 0x9f, 0x45, 0xb7, 0x6e, 0xf4, 
  0x72, 0x3c, 0xb8, 0x8c, 0xf7, 0x12, 0xf2, 0xee, 0xee, 0x0b, 0x45, 0x42, 
  0x72, 0x6f, 0x6d, 0xb9, 0x05, 0x8e, 0xa1, 0x1f, 0x0a, 0x8b, 0x2c, 0xfa, 
  0xf6, 0x37, 0x07, 0xc1, 0xdc, 0xf3, 0xc4, 0x9f, 0x0b, 0x25, 0x39, 0x7f, 
  0x25, 0x1a, 0xf0, 0xfe, 0xe0, 0x2e, 0x1b, 0x39, 0x09, 0x07, 0x22, 0xf0, 
  0xd9, 0xeb, 0x1f, 0x21, 0xf9, 0xc6, 0xd7, 0x2f, 0xe6, 0xee, 0x15, 0xd9, 
  0x05, 0x24, 0xb3, 0xe6, 0xe1, 0x9e, 0x24, 0xca, 0xdf, 0xe4, 0x36, 0x33, 
  0x05, 0x85, 0xea, 0xed, 0x12, 0x15, 0x2a, 0x18, 0xf2, 0x11, 0xfc, 0xa6, 
  0x18, 0xea, 0xcd, 0x3d, 0x52, 0x42, 0x0b, 0x28, 0xbe, 0x90, 0x32, 0x3f, 
  0x72, 0xbb, 0x8a, 0x6a, 0x26, 0x68, 0xe3, 0xe0, 0x17, 0x90, 0xa8, 0x78, 
  0x47, 0x0a, 0x33, 0xc4, 0xdb, 0xf5, 0xf6, 0x08, 0x62, 0xe7, 0x58, 0xb2, 
  0xeb, 0xa9, 0xc7, 0x7a, 0xa8, 0xcc, 0xb3, 0x82, 0x1b, 0xc9, 0x2e, 0xe6, 
  0xb5, 0x3b, 0x0e, 0x4f, 0xbf, 0x6a, 0xfa, 0x24, 0x8b, 0xea, 0xdf, 0x0d, 
  0x34, 0xac, 0xc4, 0xf7, 0x85, 0x81, 0x06, 0x6f, 0xc2, 0x18, 0x1c, 0x6f, 
  0xfd, 0xe3, 0x1a, 0xe6, 0x10, 0x24, 0xf1, 0x28, 0xf1, 0x14, 0x16, 0xee, 
  0xf6, 0xf9, 0xe2, 0xe2, 0x07, 0xf2, 0x0f, 0x2a, 0xe3, 0x0e, 0xd7, 0x18, 
  0x88, 0x13, 0x04, 0xf8, 0x81, 0x06, 0x09, 0xd1, 0xee, 0xec, 0xce, 0xf5, 
  0xfa, 0x5a, 0xfb, 0x11, 0xe7, 0x00, 0x1a, 0x18, 0x22, 0xd6, 0xde, 0xf5, 
  0xe5, 0x14, 0x0f, 0x2f, 0x0f, 0x07, 0x15, 0xf9, 0xe8, 0xfb, 0x23, 0x17, 
  0x0b, 0xc4, 0xc2, 0x25, 0xd9, 0x0b, 0xe5, 0xb1, 0xf7, 0x65, 0x53, 0x2a, 
  0xdb, 0xb4, 0x0b, 0x1f, 0x26, 0xff, 0x0d, 0x58, 0xf0, 0x11, 0x2a, 0xdb, 
  0xfe, 0x0b, 0x24, 0x35, 0x84, 0x44, 0x2e, 0x24, 0xb9, 0x10, 0x3d, 0x2c, 
  0x26, 0x6b, 0xf4, 0x18, 0x33, 0x4a, 0x1d, 0xe5, 0x47, 0xe5, 0xfe, 0x87, 
  0x58, 0x2e, 0xfa, 0x65, 0x20, 0x1a, 0xb6, 0x81, 0xf9, 0xaf, 0xe4, 0x40, 
  0x89, 0x1a, 0x21, 0xf4, 0x1a, 0xfb, 0xfa, 0xd1, 0x1a, 0xfb, 0x23, 0xfb, 
  0xe1, 0xf4, 0x06, 0xe0, 0x12, 0xef, 0xf4, 0x13, 0xef, 0x13, 0xd2, 0x03, 
  0x09, 0xf5, 0xef, 0xe3, 0x05, 0xf2, 0x25, 0x21, 0x03, 0xed, 0x1e, 0xfb, 
  0x36, 0x19, 0xf8, 0xfc, 0x10, 0xca, 0x0e, 0xf7, 0x1c, 0x7f, 0xf5, 0xfb, 
  0xf6, 0xf8, 0xf6, 0xe8, 0xc8, 0xf0, 0xed, 0x17, 0xf0, 0x06, 0xe7, 0x1c, 
  0x10, 0xf5, 0xfe, 0x0d, 0xf2, 0x1c, 0xdb, 0x0c, 0xe0, 0xfd, 0x03, 0x90, 
  0xf2, 0xeb, 0x12, 0x0f, 0xe7, 0x0d, 0xd6, 0xca, 0x81, 0x32, 0x21, 0x2a, 
  0xfb, 0x1c, 0x15, 0xa4, 0x0e, 0xe8, 0x20, 0xe3, 0x0f, 0xd9, 0xad, 0xe3, 
  0x4c, 0xe0, 0x2d, 0x12, 0x1b, 0x1e, 0x1a, 0xfd, 0xdd, 0xda, 0x25, 0xde, 
  0x29, 0x64, 0x10, 0x0b, 0xd8, 0x12, 0xf5, 0x4b, 0xcf, 0xdd, 0x21, 0xd3, 
  0xe5, 0xe3, 0x10, 0xf6, 0x2c, 0x1d, 0xf1, 0xe7, 0x38, 0xed, 0x94, 0x0d, 
  0xcf, 0xe5, 0x2f, 0xb3, 0x01, 0x13, 0x20, 0x8b, 0x4d, 0x13, 0x05, 0xa0, 
  0x0b, 0x4e, 0x29, 0x39, 0x28, 0x24, 0x82, 0xf5, 0x5e, 0xe1, 0x07, 0xe9, 
  0x04, 0x62, 0xc7, 0xd5, 0xe5, 0x05, 0x19, 0x39, 0x9e, 0x1b, 0x05, 0xea, 
  0x19, 0xec, 0xdb, 0xbd, 0xf2, 0x50, 0x39, 0x20, 0xe7, 0x1c, 0x2f, 0x26, 
  0xf8, 0x7f, 0x3e, 0xc7, 0x06, 0x2f, 0x29, 0x98, 0x1f, 0xfe, 0xe1, 0xfb, 
  0x2c, 0xb6, 0x49, 0xdb, 0x12, 0x25, 0xeb, 0xe8, 0x15, 0x11, 0xf4, 0xee, 
  0x1d, 0x17, 0x09, 0xd2, 0xcc, 0x01, 0x1d, 0x11, 0x00, 0x03, 0x81, 0xea, 
  0x14, 0x09, 0x0e, 0xd7, 0xf5, 0xe7, 0xd2, 0xf2, 0x1b, 0x11, 0xf6, 0x30, 
  0xf2, 0xf4, 0x11, 0x09, 0x13, 0xd9, 0x36, 0xd3, 0x21, 0x6e, 0xf4, 0xeb, 
  0xe5, 0xfe, 0xd3, 0x02, 0xd2, 0x5c, 0x39, 0xce, 0x12, 0xdf, 0x0b, 0xc6, 
  0x23, 0xf7, 0x1f, 0xd3, 0x31, 0xfe, 0xc9, 0xf0, 0x0c, 0x04, 0xf3, 0x28, 
  0x15, 0x0a, 0xfe, 0x17, 0x03, 0xf9, 0x07, 0x11, 0xe9, 0xee, 0x13, 0xf2, 
  0x0a, 0x09, 0x1a, 0x1e, 0xf1, 0x0b, 0xfd, 0x14, 0x04, 0x09, 0x0b, 0xf9, 
  0x2c, 0x0d, 0x07, 0x04, 0x0a, 0x08, 0xf7, 0x15, 0xda, 0xf8, 0xfa, 0x23, 
  0xf0, 0x81, 0x01, 0xf7, 0x0e, 0x09, 0x06, 0xf0, 0xf1, 0xd6, 0xe4, 0x0f, 
  0x0f, 0xf0, 0x0b, 0x06, 0xfa, 0x0e, 0x03, 0x09, 0xf0, 0x11, 0xe8, 0x0d, 
  0xce, 0x02, 0x01, 0x2e, 0xeb, 0xfb, 0x07, 0x04, 0x28, 0xf1, 0xde, 0x99, 
  0xe7, 0xfd, 0x1c, 0x18, 0xf8, 0xfe, 0x04, 0xd9, 0xea, 0xe8, 0x0f, 0x0c, 
  0x05, 0xef, 0xda, 0x06, 0x0f, 0x08, 0x01, 0x20, 0xcc, 0x1f, 0x04, 0x00, 
  0x12, 0xe9, 0xe8, 0xd6, 0x24, 0x7f, 0xf4, 0x05, 0xd0, 0x21, 0xe6, 0x0c, 
  0xf9, 0xbc, 0x37, 0xce, 0xfe, 0xe1, 0x15, 0x3f, 0xff, 0xfc, 0xee, 0xc3, 
  0x10, 0xec, 0xfc, 0xea, 0x43, 0xaf, 0x00, 0xec, 0x2c, 0x54, 0x14, 0xb7, 
  0x30, 0x7d, 0x2a, 0x49, 0x9f, 0x5d, 0xc1, 0x19, 0xda, 0x2a, 0xbe, 0x41, 
  0xfe, 0x13, 0xf6, 0x81, 0x09, 0x43, 0x63, 0xf9, 0x39, 0x12, 0x07, 0xfa, 
  0x19, 0x2b, 0xdb, 0xf9, 0xc6, 0x4b, 0xdf, 0xcf, 0x1a, 0xbe, 0x14, 0xe9, 
  0x76, 0xc5, 0x71, 0x98, 0x5c, 0xe3, 0x2a, 0x17, 0x1f, 0xc8, 0xfb, 0x8e, 
  0xbf, 0x15, 0xe6, 0x61, 0xd5, 0xd7, 0xfb, 0xce, 0xed, 0xeb, 0x10, 0x14, 
  0x1c, 0x19, 0x15, 0xf2, 0x03, 0x16, 0x05, 0x45, 0xfd, 0x1b, 0xed, 0x16, 
  0x00, 0x0e, 0xfe, 0xf1, 0x07, 0x1c, 0xfe, 0x07, 0x08, 0x0b, 0x1a, 0xfb, 
  0xf3, 0x03, 0xfc, 0xf4, 0x05, 0x13, 0x0d, 0x0d, 0xec, 0xdb, 0xd8, 0xdf, 
  0x01, 0x81, 0x18, 0xe6, 0xdf, 0x17, 0xfd, 0xff, 0x11, 0xd8, 0x08, 0x16, 
  0xf8, 0xfb, 0xfa, 0x11, 0x01, 0xf7, 0xeb, 0x18, 0x25, 0xed, 0xd1, 0xfd, 
  0x23, 0xda, 0xcb, 0xdc, 0xce, 0x01, 0xe9, 0x3b, 0x04, 0x19, 0x12, 0x38, 
  0x0e, 0xe5, 0xc8, 0x51, 0x04, 0xd4, 0xa0, 0x64, 0x20, 0x2d, 0xc6, 0x1f, 
  0x29, 0xdb, 0x68, 0x1c, 0xec, 0xd8, 0xcc, 0xf4, 0x28, 0x06, 0x16, 0x02, 
  0x4a, 0xd0, 0xd2, 0xb6, 0xd1, 0x7f, 0x2a, 0xcd, 0xfb, 0x01, 0xf5, 0x0e, 
  0xbb, 0xb5, 0x20, 0x08, 0xc7, 0x38, 0x37, 0xfe, 0x2e, 0x23, 0xdd, 0xfb, 
  0x20, 0x14, 0x44, 0x3d, 0xe8, 0x0e, 0xe8, 0xb8, 0x0c, 0x29, 0xf3, 0x28, 
  0xcf, 0x25, 0xe3, 0x15, 0xd6, 0x2e, 0xed, 0xf2, 0xdf, 0xd8, 0xf4, 0xdf, 
  0xef, 0xfa, 0xfc, 0xeb, 0xf3, 0x15, 0x02, 0x08, 0x42, 0x81, 0xe5, 0x09, 
  0x12, 0x12, 0xe9, 0xcb, 0x18, 0x27, 0xe2, 0x2b, 0x11, 0x1a, 0xff, 0xf2, 
  0x0d, 0x05, 0x1b, 0x05, 0xde, 0x01, 0x1a, 0xac, 0x00, 0x0f, 0x13, 0xe2, 
  0xd9, 0xeb, 0xf6, 0xf3, 0x40, 0x10, 0xf1, 0xe4, 0xe6, 0xd6, 0x16, 0x21, 
  0x2e, 0x59, 0x41, 0xb9, 0x4b, 0xdc, 0x26, 0x50, 0x1f, 0xd5, 0xde, 0xe5, 
  0xd0, 0x91, 0x18, 0x43, 0x9c, 0xd4, 0xda, 0x98, 0x32, 0x2b, 0xba, 0xd4, 
  0x89, 0x3a, 0xe3, 0x02, 0x42, 0x8e, 0x83, 0x02, 0x98, 0x02, 0xfc, 0xc7, 
  0xcc, 0xbc, 0xe3, 0x16, 0x51, 0x4d, 0xd3, 0xc4, 0x17, 0x3f, 0xc0, 0xec, 
  0xdf, 0xe3, 0x8a, 0x5a, 0x4a, 0x0d, 0x92, 0x4c, 0x81, 0x0e, 0xd2, 0xb0, 
  0x94, 0xe5, 0x81, 0xde, 0xe5, 0xac, 0x3f, 0xf3, 0xd2, 0xeb, 0x8e, 0x0f, 
  0xe7, 0x9e, 0x42, 0xec, 0x42, 0xe2, 0x3f, 0x94, 0x4c, 0x28, 0x66, 0xe9, 
  0xec, 0x51, 0x30, 0x47, 0x0d, 0xf1, 0xf2, 0x5a, 0x66, 0x94, 0x9e, 0x3b, 
  0xe9, 0x4f, 0x2a, 0xdd, 0xee, 0x5b, 0xfa, 0x51, 0x98, 0x89, 0xe6, 0x70, 
  0xbd, 0x41, 0x03, 0xf5, 0xc4, 0x37, 0x31, 0x2a, 0xbf, 0xb3, 0x9e, 0xa7, 
  0xda, 0x3b, 0x35, 0x24, 0x42, 0x23, 0x1b, 0xaf, 0xf1, 0x28, 0xd1, 0xe8, 
  0x08, 0xb2, 0x5d, 0x08, 0xd6, 0x0d, 0xfb, 0x17, 0xdf, 0xac, 0x88, 0xe4, 
  0xf9, 0xe0, 0xad, 0x05, 0x29, 0x3b, 0x07, 0xef, 0xf5, 0xb5, 0xfb, 0xdb, 
  0x75, 0xc7, 0x17, 0xc5, 0xc2, 0xc7, 0xfb, 0x81, 0x2e, 0xe5, 0x3f, 0x14, 
  0x3c, 0xf3, 0x21, 0xc3, 0xa3, 0xa3, 0x28, 0x04, 0x0d, 0xfa, 0x31, 0x12, 
  0xc6, 0x2c, 0xb2, 0x3a, 0xfc, 0xc8, 0xec, 0xfb, 0xfa, 0xd8, 0x29, 0x3f, 
  0x0f, 0x26, 0x4d, 0xb3, 0x1d, 0xe2, 0xfe, 0xe7, 0xec, 0xc3, 0x81, 0x15, 
  0x5b, 0x19, 0xbc, 0x30, 0x3f, 0x98, 0x33, 0xa4, 0xb6, 0xf0, 0x16, 0x1e, 
  0xe0, 0x2c, 0x26, 0xd8, 0x60, 0xf2, 0x48, 0x81, 0xc1, 0x06, 0x4a, 0xcd, 
  0x97, 0x56, 0x01, 0x61, 0x07, 0xb4, 0xba, 0x84, 0xb8, 0x01, 0xa9, 0x3b, 
  0x1f, 0xd5, 0xd1, 0xce, 0x91, 0x8d, 0xe3, 0x48, 0x84, 0xa0, 0x37, 0xf0, 
  0xc6, 0xe9, 0xbe, 0xaa, 0xf0, 0x35, 0x35, 0x21, 0x69, 0xd2, 0xcd, 0x34, 
  0xf6, 0x26, 0xff, 0xea, 0x2c, 0xf6, 0xe2, 0xf7, 0xf4, 0xe4, 0xe9, 0xff, 
  0x03, 0xe7, 0x2a, 0x0a, 0x66, 0x9a, 0xab, 0xee, 0x70, 0x0b, 0xc1, 0xc2, 
  0xf0, 0x75, 0xbc, 0x1e, 0xc1, 0xda, 0x2c, 0x06, 0x38, 0xf7, 0x3a, 0x40, 
  0x29, 0x8c, 0xf4, 0xe0, 0xb1, 0xd5, 0x1f, 0x7f, 0xc3, 0x16, 0x13, 0x15, 
  0x05, 0x0d, 0x03, 0xe6, 0x13, 0xff, 0x1e, 0xee, 0xe6, 0xf6, 0x06, 0xef, 
  0xdd, 0xcc, 0x1b, 0xfd, 0x2b, 0xb6, 0x01, 0x00, 0x0f, 0xe8, 0x1d, 0x02, 
  0xec, 0x1b, 0x03, 0xf3, 0x1b, 0xf7, 0x21, 0x1c, 0x81, 0xfe, 0x06, 0xed, 
  0xca, 0x12, 0x0f, 0x0f, 0x12, 0xc0, 0x06, 0x29, 0x01, 0x2c, 0xe5, 0xf8, 
  0xf6, 0x08, 0xd6, 0xfb, 0xcc, 0xee, 0xfe, 0xf5, 0x06, 0xf5, 0x04, 0x02, 
  0x19, 0x0a, 0xed, 0xef, 0x21, 0xfb, 0xe6, 0x03, 0xdc, 0xef, 0x0e, 0xe2, 
  0xd2, 0xfc, 0x1c, 0xd6, 0x25, 0x05, 0xd4, 0x0b, 0x08, 0xef, 0x27, 0x16, 
  0x2a, 0x13, 0x52, 0xfb, 0x27, 0xee, 0xfa, 0xd3, 0x18, 0xe2, 0x05, 0x0a, 
  0x44, 0xf9, 0x09, 0x2e, 0xab, 0x04, 0x0b, 0xc4, 0xdb, 0x2a, 0xe0, 0x46, 
  0xc9, 0x7f, 0xfa, 0x1e, 0xf3, 0x07, 0x25, 0x0b, 0x13, 0xff, 0x24, 0xb9, 
  0xc9, 0x02, 0x2c, 0xe8, 0x05, 0xe9, 0x26, 0x0f, 0x41, 0xf1, 0xec, 0x21, 
  0xff, 0x31, 0xcf, 0x81, 0x1d, 0x24, 0x0d, 0xf8, 0xe7, 0xfe, 0x03, 0xdd, 
  0xfa, 0xf7, 0xc9, 0xfb, 0xe8, 0xbe, 0xd8, 0x00, 0x05, 0x2a, 0xf5, 0xf6, 
  0xdd, 0x16, 0x10, 0x19, 0x09, 0xc8, 0xcf, 0x0f, 0x19, 0xea, 0xbe, 0x9a, 
  0xb6, 0x05, 0xcc, 0x0b, 0xf8, 0x75, 0x20, 0x1c, 0x08, 0x13, 0x22, 0x01, 
  0xf8, 0xed, 0x1b, 0xd7, 0xdf, 0xf1, 0x18, 0x25, 0x0c, 0xe1, 0x10, 0x21, 
  0x25, 0x05, 0x1b, 0xd6, 0xe8, 0x09, 0x15, 0x16, 0xe7, 0xe7, 0x26, 0x35, 
  0xe1, 0xe2, 0x1e, 0xfe, 0x61, 0xed, 0xf2, 0x15, 0xf1, 0xee, 0x19, 0xe9, 
  0xdb, 0x01, 0x29, 0x1c, 0xfe, 0xe6, 0x05, 0x2b, 0x81, 0x0f, 0x1b, 0xe4, 
  0xd7, 0x12, 0x21, 0xe3, 0x17, 0xd7, 0xf3, 0x06, 0xf3, 0x75, 0xf8, 0x0c, 
  0xe1, 0xf8, 0x09, 0x04, 0xd4, 0x05, 0xe7, 0xf9, 0xfa, 0xe8, 0xf1, 0x1e, 
  0xf2, 0xf1, 0x1a, 0xf1, 0x03, 0x00, 0x12, 0x0c, 0x1f, 0x23, 0x0f, 0x2c, 
  0xe9, 0xdd, 0xff, 0x0a, 0xea, 0xdf, 0xe1, 0xe4, 0x0e, 0xf7, 0x0f, 0xf4, 
  0xe5, 0x19, 0x22, 0x0e, 0xf3, 0xe8, 0x20, 0xf7, 0x2b, 0xf1, 0xf1, 0xfc, 
  0xe4, 0xe6, 0x10, 0x20, 0x7f, 0xdd, 0xef, 0xf8, 0xd7, 0xf0, 0x38, 0x0f, 
  0x19, 0xcf, 0x12, 0xff, 0x11, 0x08, 0x08, 0xe9, 0xd9, 0xe5, 0xe3, 0x09, 
  0x11, 0x0b, 0xf8, 0x08, 0x06, 0x00, 0x1e, 0x09, 0xf2, 0x14, 0xec, 0xf1, 
  0xfc, 0xbc, 0xdb, 0xc9, 0xbe, 0xbe, 0x8d, 0x1d, 0xa8, 0xfc, 0xb4, 0xd2, 
  0xdb, 0xc0, 0xd0, 0x35, 0xad, 0xe9, 0xed, 0xf5, 0xbf, 0x28, 0xb6, 0x43, 
  0x42, 0x1b, 0x2a, 0x81, 0x41, 0xad, 0x91, 0x9b, 0x8c, 0xd4, 0x97, 0x9d, 
  0x4a, 0xb6, 0x36, 0xd1, 0x20, 0xc4, 0xd5, 0x54, 0x9a, 0x26, 0x48, 0x47, 
  0x32, 0x19, 0x46, 0x4b, 0x23, 0xea, 0x0f, 0xff, 0x49, 0xaa, 0xdc, 0xb1, 
  0xc2, 0x1f, 0xd4, 0x95, 0x97, 0xee, 0xab, 0xd7, 0x3c, 0xef, 0x89, 0xde, 
  0x2c, 0x91, 0x97, 0xdb, 0xdd, 0x4e, 0x0b, 0x32, 0xa7, 0x86, 0xf0, 0xb9, 
  0xf0, 0x4e, 0xfe, 0x37, 0x81, 0xfa, 0x44, 0xc9, 0xc4, 0xfc, 0xf5, 0x49, 
  0xfa, 0x33, 0xd3, 0x85, 0xbf, 0x67, 0x2f, 0xf7, 0xd2, 0x26, 0xf7, 0xd9, 
  0x5e, 0x1c, 0x85, 0x0d, 0x0f, 0x39, 0x28, 0x99, 0x95, 0xa1, 0x25, 0xbd, 
  0x1b, 0x1e, 0xc7, 0xa1, 0x0f, 0xc6, 0x2c, 0x4d, 0xdb, 0x95, 0x8c, 0x06, 
  0x1c, 0x0d, 0x21, 0xf9, 0xf0, 0x07, 0xee, 0x5f, 0x02, 0xf9, 0xfe, 0x11, 
  0xfc, 0x84, 0x06, 0x88, 0xca, 0x32, 0x01, 0xde, 0xef, 0x3b, 0xdf, 0x11, 
  0xd5, 0xcb, 0x81, 0x46, 0xb3, 0x22, 0xbf, 0xd4, 0x32, 0xd8, 0xaf, 0xe1, 
  0xda, 0x03, 0xa2, 0xae, 0xa4, 0x25, 0x30, 0x39, 0x3f, 0xce, 0xa9, 0xaa, 
  0x05, 0xfb, 0xe2, 0x01, 0x94, 0x1a, 0xf9, 0x33, 0x2e, 0x16, 0x22, 0x8c, 
  0x08, 0x0c, 0x11, 0x1d, 0x24, 0xdc, 0x15, 0xfc, 0x20, 0x01, 0x0e, 0x05, 
  0xda, 0xdf, 0x16, 0x17, 0x1c, 0xf6, 0xe9, 0xe0, 0xf8, 0xfe, 0xfb, 0x16, 
  0xff, 0x05, 0xd2, 0xfc, 0x11, 0x0e, 0xfd, 0xfb, 0xad, 0x0b, 0x0f, 0x08, 
  0x3e, 0x35, 0x1f, 0xc3, 0x29, 0x43, 0xef, 0xf0, 0xec, 0xe2, 0xcb, 0xf8, 
  0x1b, 0x7f, 0x02, 0xec, 0x0e, 0x14, 0xfc, 0xf4, 0x03, 0x13, 0xfa, 0xe1, 
  0xbc, 0x0a, 0x1f, 0x23, 0x0c, 0x12, 0x11, 0x3f, 0x30, 0xc1, 0x0e, 0x16, 
  0xff, 0x28, 0x01, 0x2d, 0xef, 0x19, 0x1e, 0xe2, 0x10, 0x0b, 0x02, 0xe5, 
  0xd1, 0xe5, 0xfb, 0x23, 0xe4, 0xed, 0xd6, 0x0b, 0x7f, 0x03, 0xfc, 0xee, 
  0x41, 0x11, 0x1a, 0x0f, 0xf5, 0x1a, 0x19, 0xe9, 0x1a, 0x92, 0xeb, 0x15, 
  0xd3, 0xf4, 0xd1, 0x02, 0x1f, 0xec, 0xec, 0x05, 0xf9, 0x03, 0xf4, 0x15, 
  0x0c, 0x0f, 0xed, 0xdb, 0xed, 0x02, 0xef, 0x0a, 0xe6, 0xfc, 0x16, 0x97, 
  0xe2, 0xde, 0x21, 0x0c, 0xe4, 0xd9, 0x19, 0xdb, 0x02, 0xde, 0x1e, 0xf8, 
  0x1c, 0x13, 0xf5, 0xec, 0x16, 0x1c, 0x0e, 0xe6, 0xe9, 0xcd, 0x13, 0x22, 
  0xc4, 0xf0, 0x1f, 0xea, 0xf2, 0x2b, 0x0f, 0x05, 0xf9, 0x11, 0xf8, 0x09, 
  0xf1, 0x7f, 0x01, 0xf4, 0x10, 0xfc, 0xcf, 0xfa, 0xe5, 0x2a, 0xf9, 0x02, 
  0xf3, 0x01, 0xd0, 0xfc, 0x15, 0x13, 0x1d, 0x07, 0xfc, 0x00, 0xe1, 0x06, 
  0xcc, 0x38, 0x04, 0xc6, 0xfe, 0x41, 0x2d, 0xf2, 0xde, 0x08, 0xfb, 0x05, 
  0x96, 0x3e, 0xcd, 0x23, 0x15, 0x98, 0xac, 0x21, 0x12, 0x14, 0xf0, 0xb5, 
  0x09, 0xc6, 0xd8, 0x31, 0x7f, 0x07, 0x02, 0x2e, 0x01, 0xee, 0xdb, 0xc7, 
  0xe3, 0x39, 0x9f, 0x18, 0x14, 0x33, 0x4b, 0xdc, 0x1b, 0xd2, 0x03, 0x20, 
  0x40, 0xc6, 0x38, 0xbd, 0xc3, 0x09, 0x43, 0xc8, 0xdd, 0xdc, 0x1b, 0x10, 
  0xf0, 0x06, 0x03, 0xde, 0xd1, 0x03, 0x4f, 0x5b, 0xc1, 0x07, 0xe6, 0xfa, 
  0x81, 0x47, 0x04, 0xba, 0x17, 0x29, 0xdf, 0x1a, 0xe5, 0xb7, 0xf0, 0x47, 
  0x2a, 0xfd, 0x8e, 0x08, 0x2f, 0x43, 0x35, 0xe4, 0x88, 0x7d, 0xe8, 0x22, 
  0xb8, 0xb9, 0xe7, 0x2a, 0xd6, 0xa7, 0xfc, 0x82, 0xe6, 0xbd, 0xfe, 0x02, 
  0x0d, 0xfa, 0x01, 0xac, 0xb7, 0xe6, 0xe0, 0x25, 0x0b, 0xd7, 0x20, 0xe6, 
  0xb1, 0x19, 0xc9, 0x3e, 0xc7, 0xf3, 0x3a, 0x22, 0x08, 0x1b, 0xd7, 0x91, 
  0x2e, 0xfc, 0xd4, 0xbb, 0x2c, 0x09, 0xc4, 0x2f, 0xc9, 0x2a, 0xee, 0x23, 
  0x0e, 0x0c, 0x33, 0xce, 0xe7, 0x1a, 0x16, 0x16, 0x0e, 0x08, 0xa7, 0x15, 
  0x42, 0xb6, 0xf0, 0x0d, 0xb6, 0x25, 0xcd, 0xc1, 0xb4, 0x57, 0xbc, 0xf5, 
  0xbd, 0xfd, 0x1c, 0x18, 0x20, 0x3e, 0x17, 0x25, 0x36, 0xf8, 0xd5, 0x01, 
  0xf3, 0x24, 0x1e, 0x05, 0x1a, 0x12, 0x11, 0x06, 0x65, 0x1e, 0x81, 0xf9, 
  0x79, 0x83, 0xba, 0xae, 0x95, 0xc9, 0xa3, 0xbe, 0x6e, 0x6a, 0xae, 0xe6, 
  0x0f, 0x42, 0x29, 0x93, 0xe3, 0xa8, 0x6c, 0x81, 0xaf, 0xe8, 0x9d, 0xbc, 
  0xfd, 0x21, 0x76, 0xac, 0x69, 0x3c, 0x08, 0x07, 0x46, 0x54, 0x7c, 0x78, 
  0xec, 0xec, 0x4e, 0xf4, 0xb2, 0xf9, 0xd7, 0xc3, 0x6b, 0x3d, 0xd0, 0x13, 
  0x9a, 0xdd, 0x83, 0x99, 0xc8, 0x63, 0x81, 0xe1, 0xa7, 0x31, 0xb9, 0xb7, 
  0x4a, 0x39, 0xc2, 0x01, 0xda, 0xfe, 0xf5, 0x81, 0x0a, 0x1a, 0xf2, 0x1c, 
  0xc3, 0xbb, 0x2d, 0x8c, 0xfb, 0x25, 0xce, 0x20, 0x29, 0xd1, 0x10, 0xf3, 
  0x04, 0xf1, 0xca, 0x13, 0x09, 0xee, 0x32, 0x27, 0xdd, 0xa1, 0x22, 0x30, 
  0x34, 0xe4, 0xf9, 0xbd, 0xbc, 0xee, 0xc4, 0x10, 0x07, 0x7b, 0x4a, 0xfe, 
  0x17, 0x52, 0x1a, 0x28, 0xd1, 0x9d, 0x3b, 0xbc, 0xf8, 0xfc, 0x45, 0x5e, 
  0xe5, 0x48, 0x09, 0xf0, 0x10, 0xe6, 0xe3, 0xab, 0xfd, 0xec, 0xd9, 0x8e, 
  0xa1, 0x94, 0x30, 0xa0, 0x93, 0xce, 0x9c, 0xce, 0x17, 0x4f, 0x39, 0xd9, 
  0xd6, 0x30, 0x11, 0x10, 0x50, 0x2b, 0xc8, 0xb7, 0x9f, 0x87, 0xce, 0x63, 
  0x38, 0x48, 0xbe, 0x3c, 0xca, 0xf3, 0xac, 0x43, 0x53, 0x60, 0xe8, 0xcf, 
  0x81, 0x49, 0xf3, 0x48, 0x15, 0x89, 0x29, 0x54, 0xc1, 0x78, 0xc8, 0x52, 
  0x51, 0xa2, 0x8c, 0x45, 0x46, 0x40, 0xec, 0x85, 0xd5, 0xbe, 0x83, 0x39, 
  0x81, 0xc2, 0x23, 0xa2, 0xd0, 0x5b, 0x05, 0x68, 0xa8, 0x44, 0x89, 0xb9, 
  0x21, 0xb0, 0xd2, 0x9e, 0xf0, 0x00, 0x24, 0x72, 0x85, 0x70, 0xe3, 0x73, 
  0x82, 0x98, 0xba, 0x67, 0x19, 0xd1, 0x6b, 0x1e, 0xb6, 0xb1, 0x66, 0x83, 
  0xaf, 0x42, 0xc2, 0xd5, 0x23, 0x13, 0x33, 0xe5, 0xbb, 0xb6, 0x25, 0xd8, 
  0xcf, 0x0b, 0xc6, 0xe9, 0xa9, 0x12, 0x21, 0xf5, 0xa9, 0xcb, 0xb6, 0x01, 
  0xce, 0xf1, 0x06, 0x05, 0x06, 0x29, 0x3c, 0xf6, 0x19, 0x1f, 0x27, 0xd9, 
  0xf6, 0xda, 0x13, 0xf4, 0xe7, 0xb6, 0xeb, 0xde, 0xe4, 0x00, 0x81, 0xec, 
  0xe8, 0x37, 0xf6, 0xda, 0x1f, 0xcb, 0x1f, 0xe0, 0xfc, 0x1b, 0x2e, 0xf2, 
  0x30, 0xde, 0x2e, 0x18, 0x42, 0xa5, 0x3a, 0xd5, 0x0e, 0x3c, 0xd3, 0x2a, 
  0x12, 0x20, 0xb6, 0x12, 0xd6, 0x51, 0x20, 0xd1, 0x45, 0x15, 0xd7, 0xda, 
  0x18, 0x18, 0x1b, 0x1f, 0x8f, 0xe0, 0x52, 0x10, 0xe0, 0x34, 0xd7, 0xf9, 
  0x02, 0x16, 0x19, 0x42, 0x19, 0xc9, 0xeb, 0xf0, 0x18, 0x2f, 0xda, 0xfe, 
  0xf2, 0xd6, 0xa9, 0xf0, 0x08, 0xdf, 0xef, 0x26, 0xcc, 0x2e, 0x16, 0x1f, 
  0xfd, 0x13, 0xfa, 0xf0, 0x3d, 0xd8, 0x02, 0xb4, 0x27, 0xff, 0xcf, 0x81, 
  0xea, 0xcc, 0x07, 0x09, 0x04, 0xd6, 0x05, 0x03, 0x18, 0xdc, 0x28, 0xbf, 
  0x0a, 0x04, 0x09, 0x7e, 0xd9, 0xf8, 0x18, 0x3c, 0x30, 0xeb, 0x47, 0x04, 
  0x11, 0x0b, 0x20, 0x81, 0x16, 0xf6, 0xf9, 0xec, 0xca, 0xb7, 0x19, 0xdb, 
  0xf3, 0xf8, 0x27, 0xe0, 0xe3, 0x2a, 0x41, 0x2f, 0xfe, 0x0f, 0x24, 0xe9, 
  0x11, 0x15, 0x2b, 0x10, 0x2a, 0xcb, 0xed, 0x08, 0x09, 0x0e, 0xe3, 0xf4, 
  0xc2, 0xef, 0x1a, 0x21, 0xf9, 0xe4, 0xfb, 0x13, 0xf8, 0x0e, 0xfd, 0x02, 
  0xe2, 0x8f, 0xcb, 0x0e, 0xe2, 0x03, 0x19, 0xed, 0x0a, 0x27, 0xf2, 0xee, 
  0xed, 0x30, 0xe4, 0xe1, 0xfc, 0xc5, 0x3b, 0x1f, 0x0f, 0x1f, 0xee, 0xbb, 
  0x26, 0x1b, 0x72, 0x46, 0x17, 0x08, 0x15, 0xe0, 0x26, 0xcc, 0xea, 0x1c, 
  0x42, 0xdf, 0x9a, 0xe1, 0xf7, 0x6b, 0x2d, 0xda, 0xfd, 0xee, 0x47, 0xe7, 
  0x16, 0xc3, 0xeb, 0x19, 0x67, 0x15, 0x25, 0x81, 0x0f, 0x24, 0x4a, 0x27, 
  0x24, 0xfa, 0x4d, 0xe0, 0x6c, 0x3a, 0x4d, 0xf5, 0x51, 0x1c, 0x2b, 0xa6, 
  0xc6, 0xbd, 0x22, 0xec, 0xc8, 0xdf, 0xeb, 0xd0, 0xef, 0xe3, 0x2e, 0xcf, 
  0x0a, 0xcf, 0xb4, 0x6a, 0x2b, 0x91, 0xd9, 0x0d, 0xa9, 0x84, 0x21, 0x94, 
  0x09, 0xe1, 0xba, 0x37, 0xba, 0x0e, 0x05, 0xec, 0x11, 0x22, 0x1f, 0xad, 
  0x15, 0xe5, 0x22, 0xde, 0x74, 0x63, 0x8b, 0x53, 0x97, 0x31, 0xc6, 0x4c, 
  0xb8, 0xba, 0x38, 0x67, 0xa4, 0xb6, 0xb4, 0x2c, 0xdc, 0x07, 0x11, 0x33, 
  0xd6, 0xe6, 0xee, 0x1c, 0xd7, 0x81, 0x4c, 0xcb, 0xeb, 0x9e, 0xad, 0x16, 
  0x97, 0x2e, 0x16, 0x13, 0x58, 0xa8, 0x87, 0x18, 0x97, 0xfa, 0x30, 0xce, 
  0x6b, 0xc0, 0x14, 0xbf, 0xff, 0x49, 0x0c, 0x40, 0x81, 0x00, 0x2d, 0x4e, 
  0x89, 0x8d, 0x6e, 0x2b, 0x38, 0xe8, 0x55, 0xce, 0x26, 0xdb, 0xbc, 0xd0, 
  0xbb, 0xff, 0xaf, 0x5a, 0x47, 0x9f, 0x22, 0x42, 0x6c, 0xe1, 0xfa, 0x4c, 
  0x61, 0x9b, 0xf4, 0xca, 0xb9, 0x95, 0x9d, 0x9e, 0x90, 0x98, 0xfd, 0x07, 
  0xb6, 0x4f, 0x33, 0xfa, 0xf4, 0xf3, 0xe8, 0xdf, 0x02, 0x00, 0x0d, 0x09, 
  0xff, 0x04, 0x0c, 0x09, 0x1d, 0xef, 0xe8, 0xf4, 0x0d, 0xeb, 0x0c, 0x15, 
  0x18, 0x14, 0x0a, 0xe4, 0x0b, 0xf5, 0x22, 0x07, 0xed, 0xe9, 0xf9, 0xed, 
  0x08, 0x18, 0xf5, 0x06, 0xf5, 0x11, 0xd9, 0x45, 0x01, 0x7f, 0xef, 0xfa, 
  0xfc, 0xfa, 0x1b, 0x06, 0xfe, 0x05, 0xe9, 0x09, 0xf1, 0xf4, 0x06, 0x03, 
  0x10, 0x12, 0x0b, 0xf2, 0xea, 0x1d, 0x19, 0x0f, 0x1f, 0x11, 0xed, 0x47, 
  0x13, 0xf4, 0x1b, 0xd7, 0xef, 0x02, 0x16, 0xba, 0xe5, 0xfb, 0x03, 0xe9, 
  0xf4, 0xf9, 0x2c, 0xde, 0xc3, 0x13, 0x27, 0xe2, 0xfd, 0xfc, 0xc8, 0xfc, 
  0x75, 0xe8, 0x0a, 0xe7, 0x0a, 0x07, 0xf6, 0x05, 0x1f, 0x37, 0xf8, 0xe9, 
  0x15, 0x81, 0x00, 0x13, 0xd2, 0xfe, 0xc3, 0x04, 0x2c, 0x2f, 0xdf, 0x03, 
  0x27, 0x0e, 0x01, 0x0f, 0xe9, 0x14, 0x08, 0xee, 0xac, 0x20, 0xea, 0x19, 
  0x46, 0x45, 0xed, 0xc0, 0x0c, 0x2d, 0xd9, 0x93, 0xf6, 0x6e, 0x25, 0x21, 
  0x81, 0x03, 0xf6, 0x25, 0x13, 0xc0, 0xae, 0x05, 0x62, 0xd9, 0xce, 0xe7, 
  0xe6, 0x29, 0xee, 0xf0, 0x0d, 0x0c, 0xe7, 0x2d, 0x0e, 0xf5, 0xea, 0xca, 
  0xfa, 0x18, 0xbb, 0xea, 0xc2, 0x0b, 0xfd, 0x0f, 0x34, 0x10, 0x43, 0xf8, 
  0x26, 0x00, 0x66, 0xdc, 0x0f, 0xd8, 0x5a, 0x02, 0xf2, 0xe2, 0x14, 0x12, 
  0xa8, 0xec, 0x9c, 0x12, 0xed, 0xea, 0x4e, 0x20, 0xbe, 0x13, 0xa9, 0xa8, 
  0xd8, 0x0d, 0x5b, 0xf5, 0xf0, 0xf2, 0x04, 0x1e, 0x28, 0x03, 0x04, 0x1c, 
  0x26, 0xe8, 0xc2, 0xec, 0xf5, 0x0f, 0x2c, 0xf7, 0x81, 0x69, 0xdf, 0xd4, 
  0x1e, 0xe8, 0x33, 0xf7, 0x05, 0xdd, 0x22, 0xa3, 0x24, 0xef, 0x37, 0x27, 
  0xf1, 0xf4, 0x1e, 0x9f, 0xc9, 0x2e, 0x44, 0x32, 0x24, 0xf1, 0x2b, 0xec, 
  0xe0, 0xd5, 0xd4, 0x29, 0x0c, 0xb5, 0x0f, 0xe4, 0x1d, 0x19, 0xd4, 0xf5, 
  0x08, 0xff, 0xf1, 0xef, 0x25, 0x25, 0xdc, 0xb9, 0x8b, 0x31, 0x29, 0xfb, 
  0x17, 0x05, 0x81, 0xe8, 0x06, 0xf5, 0x03, 0xed, 0xe2, 0x02, 0xbd, 0xe2, 
  0x7b, 0xf8, 0x09, 0xff, 0x1e, 0x17, 0xf4, 0x30, 0xf9, 0x33, 0x11, 0xc4, 
  0xf2, 0xbf, 0x37, 0x0f, 0x25, 0x15, 0xf5, 0x1a, 0x04, 0x5b, 0x4c, 0xc8, 
  0x19, 0x21, 0xfc, 0xdf, 0xfe, 0x04, 0x1c, 0xfd, 0xab, 0xe8, 0xf1, 0x0c, 
  0xf1, 0x0b, 0xfe, 0x81, 0xee, 0xfd, 0x20, 0x0b, 0xfb, 0xe6, 0x03, 0xf4, 
  0x12, 0xd6, 0x12, 0xf4, 0xf6, 0x0a, 0xe6, 0xf4, 0xf0, 0x11, 0x1b, 0xf1, 
  0x1f, 0xe2, 0x23, 0xfe, 0xd9, 0x0c, 0xfd, 0xeb, 0xf1, 0x02, 0x0a, 0x10, 
  0x04, 0xe9, 0x1f, 0xfd, 0x12, 0x7a, 0xe0, 0x08, 0x15, 0xeb, 0x06, 0xf7, 
  0x04, 0x14, 0xfd, 0xec, 0x10, 0x09, 0xe0, 0x12, 0x16, 0x0b, 0xf0, 0x04, 
  0xe9, 0x24, 0x0a, 0x07, 0x16, 0xd8, 0x3c, 0x2c, 0x0a, 0xf0, 0xea, 0xe2, 
  0xfc, 0x15, 0x2e, 0x11, 0x06, 0x05, 0x1e, 0xed, 0xf3, 0xf5, 0xb9, 0x10, 
  0x00, 0x16, 0xba, 0xf9, 0xe2, 0xf9, 0x0d, 0xd5, 0xe3, 0x29, 0xf0, 0x0a, 
  0x11, 0xf0, 0x1b, 0xf6, 0x1a, 0xec, 0x0d, 0x9f, 0x03, 0x81, 0x26, 0x17, 
  0x21, 0xf9, 0x06, 0xd8, 0xe3, 0xff, 0x39, 0x12, 0x21, 0x1e, 0x2b, 0xd3, 
  0xdd, 0xe8, 0x10, 0xf5, 0xfb, 0xb1, 0x28, 0xfb, 0xef, 0xfb, 0x0f, 0x15, 
  0xfe, 0xf4, 0x0f, 0xf7, 0xf5, 0x2b, 0xfc, 0x13, 0xe3, 0xcb, 0x12, 0xff, 
  0x11, 0x2a, 0x06, 0xfe, 0xed, 0x03, 0xdd, 0xda, 0x03, 0xe2, 0x18, 0x2a, 
  0x08, 0xf4, 0x26, 0x1a, 0x8a, 0xf4, 0x0d, 0xfe, 0x2f, 0x26, 0xfa, 0xf1, 
  0x1b, 0x7f, 0xf6, 0x0a, 0x35, 0x06, 0xd5, 0xda, 0x31, 0x2c, 0xfa, 0xfe, 
  0x01, 0xef, 0x12, 0xc7, 0xe8, 0x0a, 0x14, 0x24, 0xd4, 0xec, 0x1e, 0x0d, 
  0x30, 0x49, 0xc2, 0x20, 0xf4, 0x9f, 0x99, 0x18, 0xe2, 0xad, 0x8f, 0x20, 
  0x92, 0x66, 0xa0, 0xc1, 0x5f, 0x88, 0x29, 0xcc, 0xe2, 0x48, 0x38, 0x81, 
  0xcd, 0xcc, 0xbf, 0x3d, 0xfa, 0xc5, 0x15, 0xa1, 0x48, 0x68, 0xd6, 0x9e, 
  0x4a, 0x19, 0x19, 0x2a, 0xa3, 0x54, 0x49, 0x99, 0x3e, 0x0b, 0x16, 0x33, 
  0x95, 0xdb, 0x94, 0x49, 0x16, 0x52, 0xd4, 0xf8, 0x41, 0xa0, 0xb7, 0x43, 
  0xb8, 0xb0, 0xd3, 0x26, 0x05, 0xa5, 0x9d, 0xe9, 0x9c, 0x37, 0x94, 0x7f, 
  0xde, 0xa1, 0xb9, 0x4d, 0x96, 0x23, 0x11, 0x0a, 0x93, 0x27, 0x8f, 0x8a, 
  0x2a, 0xc7, 0xda, 0xe3, 0xd2, 0xa0, 0x40, 0xc9, 0x4e, 0xeb, 0xf1, 0x8e, 
  0xbb, 0xd9, 0x75, 0x59, 0x06, 0x6f, 0x4b, 0x56, 0xbb, 0xd2, 0x9a, 0x31, 
  0x9e, 0x6e, 0x3a, 0x78, 0xdf, 0x9d, 0x0a, 0xc2, 0x55, 0x19, 0x0b, 0x1c, 
  0xd2, 0xc3, 0x64, 0x82, 0x62, 0x65, 0x2a, 0x34, 0x32, 0xfc, 0xff, 0xff, 
  0x04, 0x00, 0x00, 0x00, 0x00, 0x01, 0x00, 0x00, 0xfd, 0xfe, 0xff, 0xff, 
  0x11, 0x01, 0x00, 0x00, 0x61, 0xfe, 0xff, 0xff, 0x73, 0xff, 0xff, 0xff, 
  0x53, 0xfe, 0xff, 0xff, 0xf9, 0x03, 0x00, 0x00, 0x7a, 0xfd, 0xff, 0xff, 
  0x3b, 0xff, 0xff, 0xff, 0x1a, 0x01, 0x00, 0x00, 0x20, 0x03, 0x00, 0x00, 
  0x4c, 0xff, 0xff, 0xff, 0x4c, 0x01, 0x00, 0x00, 0x44, 0xff, 0xff, 0xff, 
  0x02, 0x00, 0x00, 0x00, 0x74, 0x00, 0x00, 0x00, 0xb8, 0xff, 0xff, 0xff, 
  0xe4, 0x00, 0x00, 0x00, 0x24, 0x00, 0x00, 0x00, 0xec, 0xff, 0xff, 0xff, 
  0x76, 0xff, 0xff, 0xff, 0xd0, 0xff, 0xff, 0xff, 0x70, 0xfd, 0xff, 0xff, 
  0xe4, 0xff, 0xff, 0xff, 0x73, 0x07, 0x00, 0x00, 0x87, 0x00, 0x00, 0x00, 
  0x8b, 0xfd, 0xff, 0xff, 0x37, 0xff, 0xff, 0xff, 0xb6, 0x05, 0x00, 0x00, 
  0x43, 0xfe, 0xff, 0xff, 0x3b, 0x01, 0x00, 0x00, 0xe2, 0x00, 0x00, 0x00, 
  0x12, 0xff, 0xff, 0xff, 0x2a, 0x03, 0x00, 0x00, 0x32, 0x02, 0x00, 0x00, 
  0xd2, 0xfd, 0xff, 0xff, 0x60, 0xfd, 0xff, 0xff, 0x80, 0xfd, 0xff, 0xff, 
  0xde, 0xfd, 0xff, 0xff, 0x89, 0x01, 0x00, 0x00, 0xb8, 0xff, 0xff, 0xff, 
  0x50, 0x01, 0x00, 0x00, 0x5d, 0x03, 0x00, 0x00, 0x95, 0x01, 0x00, 0x00, 
  0x9f, 0xfe, 0xff, 0xff, 0xa0, 0xfe, 0xff, 0xff, 0x7c, 0x03, 0x00, 0x00, 
  0x99, 0xfd, 0xff, 0xff, 0xfc, 0xfe, 0xff, 0xff, 0xc0, 0xfd, 0xff, 0xff, 
  0x59, 0x04, 0x00, 0x00, 0x54, 0x02, 0x00, 0x00, 0x95, 0xfb, 0xff, 0xff, 
  0x00, 0x00, 0x00, 0x00, 0x34, 0xff, 0xff, 0xff, 0xd4, 0xff, 0xff, 0xff, 
  0x28, 0xff, 0xff, 0xff, 0x9a, 0x03, 0x00, 0x00, 0xfc, 0xff, 0xff, 0xff, 
  0xe3, 0xfe, 0xff, 0xff, 0x6e, 0x01, 0x00, 0x00, 0xc1, 0x00, 0x00, 0x00, 
  0x05, 0x01, 0x00, 0x00, 0x81, 0xfe, 0xff, 0xff, 0x53, 0xff, 0xff, 0xff, 
  0x3e, 0xfd, 0xff, 0xff, 0x04, 0x00, 0x00, 0x00, 0x80, 0x02, 0x00, 0x00, 
  0xfd, 0x81, 0x05, 0x28, 0x10, 0x47, 0x11, 0x1a, 0x3e, 0x43, 0xd5, 0x12, 
  0x31, 0xa6, 0xea, 0x0e, 0xc0, 0xbf, 0xfa, 0x1c, 0x90, 0xa0, 0x23, 0x36, 
  0x2c, 0xed, 0xd5, 0x06, 0x1a, 0x64, 0x27, 0xe3, 0x15, 0x28, 0xf1, 0xd6, 
  0x14, 0xf7, 0xe3, 0xdb, 0xf4, 0x26, 0x42, 0xee, 0xfd, 0xaf, 0xdd, 0x1b, 
  0x0e, 0xde, 0x07, 0x65, 0xe3, 0x2a, 0xfa, 0xb2, 0x1f, 0x46, 0xfd, 0xdc, 
  0x01, 0xf6, 0x14, 0x0e, 0x06, 0xd8, 0x0a, 0x2c, 0xe1, 0x0b, 0xcb, 0x23, 
  0xe0, 0xcc, 0x12, 0xe3, 0xec, 0x54, 0x10, 0xe2, 0x02, 0x1a, 0xdf, 0xc9, 
  0x37, 0x15, 0x19, 0xd1, 0x43, 0xe9, 0xd8, 0x27, 0x2f, 0xf6, 0x13, 0x04, 
  0x29, 0x31, 0xff, 0xf8, 0x12, 0x18, 0x14, 0x41, 0xcb, 0xce, 0x2c, 0x21, 
  0x2f, 0x81, 0x1d, 0x22, 0xe9, 0x36, 0xd0, 0xff, 0x07, 0xf0, 0x4f, 0xbb, 
  0xfc, 0x0d, 0x18, 0x14, 0x19, 0xfd, 0x15, 0x14, 0x21, 0x0f, 0xf6, 0x2f, 
  0xfb, 0x07, 0xe0, 0xc5, 0x2c, 0xe9, 0x0c, 0x13, 0xf4, 0x81, 0x24, 0xe2, 
  0x2f, 0xa7, 0xcf, 0xf7, 0xe0, 0xdf, 0xd1, 0x12, 0x39, 0x13, 0xe7, 0xf7, 
  0xec, 0x1d, 0xf3, 0xe0, 0xcc, 0x0c, 0xeb, 0x01, 0x1c, 0x28, 0x38, 0x63, 
  0x08, 0xfe, 0x07, 0x25, 0xd9, 0x31, 0xeb, 0xe1, 0xe4, 0x1e, 0x2c, 0x2a, 
  0xf3, 0xe9, 0xf8, 0x51, 0x36, 0x24, 0x38, 0xef, 0x3d, 0x0e, 0xe0, 0x0a, 
  0x15, 0x71, 0xd7, 0x14, 0x15, 0xf7, 0x36, 0x13, 0x20, 0xff, 0xd5, 0x0e, 
  0x25, 0xe3, 0xc5, 0x21, 0x32, 0x1e, 0x10, 0xe4, 0x33, 0xf0, 0xe8, 0xda, 
  0xfd, 0xf7, 0xe9, 0xf3, 0xd7, 0xf8, 0xf5, 0x0d, 0x9f, 0x04, 0x1f, 0xf0, 
  0x18, 0xe2, 0xcd, 0xc5, 0xf5, 0x40, 0x29, 0x2c, 0xef, 0x5f, 0xd5, 0x25, 
  0xed, 0xd3, 0x5c, 0x7f, 0xf0, 0xf5, 0x08, 0xf2, 0x09, 0x08, 0xa0, 0xe4, 
  0x33, 0xd8, 0xfb, 0x25, 0xf0, 0x23, 0x1f, 0xd1, 0xf7, 0xfc, 0x2c, 0xef, 
  0x1f, 0xe9, 0xfd, 0xcf, 0x24, 0xdc, 0x05, 0x00, 0x34, 0x32, 0x31, 0xf4, 
  0x2a, 0x33, 0xe2, 0xf4, 0x07, 0x1e, 0xe0, 0x09, 0x06, 0x60, 0xdb, 0xf9, 
  0x1e, 0x01, 0xfa, 0x0d, 0xf7, 0x05, 0x2b, 0xd4, 0xfb, 0xba, 0x3a, 0xec, 
  0xe8, 0x42, 0x13, 0x0a, 0x26, 0xf2, 0xcc, 0xed, 0x17, 0xe6, 0xe1, 0x14, 
  0x81, 0xfe, 0x2d, 0x0b, 0x2c, 0x0e, 0xe0, 0x1a, 0xcc, 0xf8, 0xfe, 0xd7, 
  0xd6, 0xd2, 0xf0, 0x19, 0xff, 0xec, 0x0b, 0x0f, 0xdf, 0xf1, 0xd3, 0x52, 
  0xdc, 0xd6, 0xc5, 0x01, 0x04, 0x1e, 0x1a, 0x32, 0x29, 0x15, 0xdb, 0x34, 
  0x14, 0x05, 0x17, 0xf3, 0x4c, 0xe9, 0xcf, 0xe7, 0x08, 0xe6, 0x66, 0x03, 
  0xe3, 0x29, 0xc9, 0x0e, 0x20, 0x1f, 0x05, 0xe9, 0x1f, 0x3a, 0x33, 0xe3, 
  0xf3, 0xe9, 0x24, 0xe8, 0x1c, 0x8d, 0x00, 0xcf, 0x81, 0xe0, 0x17, 0x0e, 
  0x00, 0x21, 0xe7, 0xcc, 0xd6, 0x3b, 0xdb, 0x05, 0xea, 0x37, 0xdb, 0x08, 
  0xe1, 0xf1, 0x22, 0x1e, 0xd7, 0x37, 0x20, 0xbb, 0x97, 0xd5, 0xb9, 0x52, 
  0x57, 0xc5, 0xda, 0xf7, 0x2b, 0x52, 0x43, 0x01, 0x1c, 0x42, 0xeb, 0x32, 
  0x39, 0xfc, 0x1f, 0x81, 0x44, 0x13, 0x30, 0xd1, 0xc9, 0xf1, 0xfd, 0x17, 
  0xf6, 0x20, 0x0f, 0x16, 0x34, 0xec, 0x03, 0xb8, 0x04, 0xef, 0xa9, 0x30, 
  0x35, 0x28, 0x29, 0xde, 0xe9, 0xe2, 0xc8, 0x27, 0x24, 0xba, 0xfb, 0x06, 
  0xe6, 0xfc, 0xd7, 0x1e, 0x37, 0xcf, 0x16, 0x67, 0xe6, 0x10, 0x26, 0xcb, 
  0xc2, 0x3a, 0x2d, 0x07, 0x83, 0xcd, 0xdc, 0x64, 0xca, 0xce, 0x3a, 0xab, 
  0xcc, 0x21, 0x1c, 0xdb, 0x10, 0xf9, 0x04, 0x2a, 0xed, 0xdb, 0x5e, 0xd2, 
  0xfe, 0x0a, 0xdd, 0xde, 0x31, 0x51, 0xdb, 0x4d, 0x22, 0xcd, 0x96, 0x12, 
  0x03, 0x7d, 0x57, 0xdd, 0x7f, 0xd7, 0xfe, 0xd3, 0x1a, 0x14, 0xe9, 0xe6, 
  0xf7, 0x3e, 0xf2, 0xe9, 0xbb, 0xa1, 0x0f, 0xca, 0x04, 0xe4, 0x0b, 0x2e, 
  0xd1, 0xbb, 0xda, 0x38, 0x70, 0x41, 0xcf, 0xfe, 0x3b, 0x26, 0x25, 0xbd, 
  0xda, 0xf3, 0x97, 0x11, 0xb8, 0x02, 0x33, 0x00, 0x1a, 0x15, 0xcc, 0x33, 
  0xf6, 0xec, 0x0d, 0x14, 0x02, 0xe3, 0xfb, 0x0c, 0xf0, 0x2d, 0x48, 0x81, 
  0x0a, 0x2e, 0xed, 0xbf, 0x17, 0x3b, 0x61, 0x1d, 0x1c, 0x07, 0x28, 0xfd, 
  0xf4, 0xef, 0x2e, 0x0c, 0x16, 0x10, 0xdc, 0x08, 0x06, 0xdf, 0xd1, 0x4b, 
  0x1f, 0xe7, 0x32, 0xaa, 0xfa, 0x32, 0xe6, 0x17, 0xd7, 0x3b, 0xf7, 0xe9, 
  0x31, 0xcb, 0x25, 0xb0, 0x0a, 0xc3, 0x7d, 0x39, 0x81, 0x1d, 0xc7, 0xbe, 
  0x00, 0xc5, 0x0e, 0x04, 0x00, 0xc9, 0xec, 0x37, 0xf4, 0x90, 0x27, 0x1a, 
  0xa1, 0xac, 0xcb, 0x1d, 0x26, 0x10, 0xd6, 0xc6, 0x28, 0x14, 0xd1, 0xa4, 
  0x09, 0x15, 0x3b, 0x2b, 0xca, 0xff, 0xff, 0xff, 0x04, 0x00, 0x00, 0x00, 
  0x28, 0x00, 0x00, 0x00, 0x16, 0x01, 0x00, 0x00, 0x78, 0x00, 0x00, 0x00, 
  0xdb, 0xff, 0xff, 0xff, 0xf5, 0xfe, 0xff, 0xff, 0x50, 0xff, 0xff, 0xff, 
  0x96, 0x00, 0x00, 0x00, 0x0a, 0x02, 0x00, 0x00, 0x05, 0xff, 0xff, 0xff, 
  0xe7, 0xff, 0xff, 0xff, 0xab, 0xfe, 0xff, 0xff, 0x00, 0x00, 0x06, 0x00, 
  0x08, 0x00, 0x04, 0x00, 0x06, 0x00, 0x00, 0x00, 0x04, 0x00, 0x00, 0x00, 
  0x08, 0x00, 0x00, 0x00, 0x01, 0x00, 0x00, 0x00, 0x02, 0x00, 0x00, 0x00, 
  0x84, 0xc5, 0xff, 0xff, 0x88, 0xc5, 0xff, 0xff, 0x0f, 0x00, 0x00, 0x00, 
  0x4d, 0x4c, 0x49, 0x52, 0x20, 0x43, 0x6f, 0x6e, 0x76, 0x65, 0x72, 0x74, 
  0x65, 0x64, 0x2e, 0x00, 0x01, 0x00, 0x00, 0x00, 0x14, 0x00, 0x00, 0x00, 
  0x00, 0x00, 0x0e, 0x00, 0x18, 0x00, 0x14, 0x00, 0x10, 0x00, 0x0c, 0x00, 
  0x08, 0x00, 0x04, 0x00, 0x0e, 0x00, 0x00, 0x00, 0x14, 0x00, 0x00, 0x00, 
  0x1c, 0x00, 0x00, 0x00, 0xd4, 0x03, 0x00, 0x00, 0xd8, 0x03, 0x00, 0x00, 
  0xdc, 0x03, 0x00, 0x00, 0x04, 0x00, 0x00, 0x00, 0x6d, 0x61, 0x69, 0x6e, 
  0x00, 0x00, 0x00, 0x00, 0x0d, 0x00, 0x00, 0x00, 0x70, 0x03, 0x00, 0x00, 
  0x08, 0x03, 0x00, 0x00, 0xa8, 0x02, 0x00, 0x00, 0x60, 0x02, 0x00, 0x00, 
  0x1c, 0x02, 0x00, 0x00, 0xd4, 0x01, 0x00, 0x00, 0x90, 0x01, 0x00, 0x00, 
  0x48, 0x01, 0x00, 0x00, 0x04, 0x01, 0x00, 0x00, 0xb4, 0x00, 0x00, 0x00, 
  0x80, 0x00, 0x00, 0x00, 0x3c, 0x00, 0x00, 0x00, 0x04, 0x00, 0x00, 0x00, 
  0x36, 0xfd, 0xff, 0xff, 0x14, 0x00, 0x00, 0x00, 0x00, 0x00, 0x00, 0x08, 
  0x10, 0x00, 0x00, 0x00, 0x14, 0x00, 0x00, 0x00, 0x04, 0x00, 0x00, 0x00, 
  0x2c, 0xc6, 0xff, 0xff, 0x01, 0x00, 0x00, 0x00, 0x24, 0x00, 0x00, 0x00, 
  0x03, 0x00, 0x00, 0x00, 0x23, 0x00, 0x00, 0x00, 0x03, 0x00, 0x00, 0x00, 
  0x02, 0x00, 0x00, 0x00, 0x6a, 0xfd, 0xff, 0xff, 0x1c, 0x00, 0x00, 0x00, 
  0x00, 0x00, 0x00, 0x08, 0x1c, 0x00, 0x00, 0x00, 0x20, 0x00, 0x00, 0x00, 
  0x04, 0x00, 0x00, 0x00, 0x00, 0x00, 0x06, 0x00, 0x08, 0x00, 0x07, 0x00, 
  0x06, 0x00, 0x00, 0x00, 0x00, 0x00, 0x00, 0x01, 0x01, 0x00, 0x00, 0x00, 
  0x23, 0x00, 0x00, 0x00, 0x03, 0x00, 0x00, 0x00, 0x22, 0x00, 0x00, 0x00, 
  0x05, 0x00, 0x00, 0x00, 0x04, 0x00, 0x00, 0x00, 0xaa, 0xfd, 0xff, 0xff, 
  0x14, 0x00, 0x00, 0x00, 0x00, 0x00, 0x00, 0x1b, 0x10, 0x00, 0x00, 0x00, 
  0x14, 0x00, 0x00, 0x00, 0x03, 0x00, 0x00, 0x00, 0xa0, 0xc6, 0xff, 0xff, 
  0x01, 0x00, 0x00, 0x00, 0x22, 0x00, 0x00, 0x00, 0x02, 0x00, 0x00, 0x00, 
  0x21, 0x00, 0x00, 0x00, 0x01, 0x00, 0x00, 0x00, 0xda, 0xfd, 0xff, 0xff, 
  0x24, 0x00, 0x00, 0x00, 0x00, 0x00, 0x00, 0x05, 0x30, 0x00, 0x00, 0x00, 
  0x34, 0x00, 0x00, 0x00, 0x02, 0x00, 0x00, 0x00, 0x00, 0x00, 0x0e, 0x00, 
  0x14, 0x00, 0x00, 0x00, 0x10, 0x00, 0x0c, 0x00, 0x08, 0x00, 0x04, 0x00, 
  0x0e, 0x00, 0x00, 0x00, 0x03, 0x00, 0x00, 0x00, 0x03, 0x00, 0x00, 0x00, 
  0x02, 0x00, 0x00, 0x00, 0x02, 0x00, 0x00, 0x00, 0x01, 0x00, 0x00, 0x00, 
  0x21, 0x00, 0x00, 0x00, 0x01, 0x00, 0x00, 0x00, 0x20, 0x00, 0x00, 0x00, 
  0xc2, 0xfd, 0xff, 0xff, 0x10, 0x00, 0x00, 0x00, 0x00, 0x00, 0x00, 0x01, 
  0x1c, 0x00, 0x00, 0x00, 0x20, 0x00, 0x00, 0x00, 0x74, 0xfe, 0xff, 0xff, 
  0x00, 0x00, 0x00, 0x01, 0x01, 0x00, 0x00, 0x00, 0x01, 0x00, 0x00, 0x00, 
  0x00, 0x00, 0x00, 0x01, 0x01, 0x00, 0x00, 0x00, 0x20, 0x00, 0x00, 0x00, 
  0x03, 0x00, 0x00, 0x00, 0x1f, 0x00, 0x00, 0x00, 0x07, 0x00, 0x00, 0x00, 
  0x06, 0x00, 0x00, 0x00, 0x66, 0xfe, 0xff, 0xff, 0x14, 0x00, 0x00, 0x00, 
  0x00, 0x00, 0x00, 0x02, 0x20, 0x00, 0x00, 0x00, 0x24, 0x00, 0x00, 0x00, 
  0x01, 0x00, 0x00, 0x00, 0x56, 0xfe, 0xff, 0xff, 0x00, 0x00, 0x00, 0x01, 
  0x01, 0x00, 0x00, 0x00, 0x01, 0x00, 0x00, 0x00, 0x01, 0x00, 0x00, 0x00, 
  0x01, 0x00, 0x00, 0x00, 0x1f, 0x00, 0x00, 0x00, 0x03, 0x00, 0x00, 0x00, 
  0x1e, 0x00, 0x00, 0x00, 0x09, 0x00, 0x00, 0x00, 0x08, 0x00, 0x00, 0x00, 
  0x46, 0xfe, 0xff, 0xff, 0x10, 0x00, 0x00, 0x00, 0x00, 0x00, 0x00, 0x01, 
  0x1c, 0x00, 0x00, 0x00, 0x20, 0x00, 0x00, 0x00, 0xf8, 0xfe, 0xff, 0xff, 
  0x00, 0x00, 0x00, 0x01, 0x01, 0x00, 0x00, 0x00, 0x01, 0x00, 0x00, 0x00, 
  0x00, 0x00, 0x00, 0x01, 0x01, 0x00, 0x00, 0x00, 0x1e, 0x00, 0x00, 0x00, 
  0x03, 0x00, 0x00, 0x00, 0x1d, 0x00, 0x00, 0x00, 0x0b, 0x00, 0x00, 0x00, 
  0x0a, 0x00, 0x00, 0x00, 0xea, 0xfe, 0xff, 0xff, 0x14, 0x00, 0x00, 0x00, 
  0x00, 0x00, 0x00, 0x02, 0x20, 0x00, 0x00, 0x00, 0x24, 0x00, 0x00, 0x00, 
  0x01, 0x00, 0x00, 0x00, 0xda, 0xfe, 0xff, 0xff, 0x00, 0x00, 0x00, 0x01, 
  0x01, 0x00, 0x00, 0x00, 0x02, 0x00, 0x00, 0x00, 0x02, 0x00, 0x00, 0x00, 
  0x01, 0x00, 0x00, 0x00, 0x1d, 0x00, 0x00, 0x00, 0x03, 0x00, 0x00, 0x00, 
  0x1c, 0x00, 0x00, 0x00, 0x0d, 0x00, 0x00, 0x00, 0x0c, 0x00, 0x00, 0x00, 
  0xca, 0xfe, 0xff, 0xff, 0x10, 0x00, 0x00, 0x00, 0x00, 0x00, 0x00, 0x01, 
  0x1c, 0x00, 0x00, 0x00, 0x20, 0x00, 0x00, 0x00, 0x7c, 0xff, 0xff, 0xff, 
  0x00, 0x00, 0x00, 0x01, 0x01, 0x00, 0x00, 0x00, 0x01, 0x00, 0x00, 0x00, 
  0x00, 0x00, 0x00, 0x01, 0x01, 0x00, 0x00, 0x00, 0x1c, 0x00, 0x00, 0x00, 
  0x03, 0x00, 0x00, 0x00, 0x1b, 0x00, 0x00, 0x00, 0x0f, 0x00, 0x00, 0x00, 
  0x0e, 0x00, 0x00, 0x00, 0x6e, 0xff, 0xff, 0xff, 0x14, 0x00, 0x00, 0x00, 
  0x00, 0x00, 0x00, 0x02, 0x20, 0x00, 0x00, 0x00, 0x24, 0x00, 0x00, 0x00, 
  0x01, 0x00, 0x00, 0x00, 0x5e, 0xff, 0xff, 0xff, 0x00, 0x00, 0x00, 0x01, 
  0x01, 0x00, 0x00, 0x00, 0x01, 0x00, 0x00, 0x00, 0x01, 0x00, 0x00, 0x00, 
  0x01, 0x00, 0x00, 0x00, 0x1b, 0x00, 0x00, 0x00, 0x03, 0x00, 0x00, 0x00, 
  0x1a, 0x00, 0x00, 0x00, 0x11, 0x00, 0x00, 0x00, 0x10, 0x00, 0x00, 0x00, 
  0x4e, 0xff, 0xff, 0xff, 0x1c, 0x00, 0x00, 0x00, 0x00, 0x00, 0x00, 0x01, 
  0x28, 0x00, 0x00, 0x00, 0x2c, 0x00, 0x00, 0x00, 0x0c, 0x00, 0x14, 0x00, 
  0x13, 0x00, 0x0c, 0x00, 0x08, 0x00, 0x07, 0x00, 0x0c, 0x00, 0x00, 0x00, 
  0x00, 0x00, 0x00, 0x01, 0x01, 0x00, 0x00, 0x00, 0x01, 0x00, 0x00, 0x00, 
  0x00, 0x00, 0x00, 0x01, 0x01, 0x00, 0x00, 0x00, 0x1a, 0x00, 0x00, 0x00, 
  0x03, 0x00, 0x00, 0x00, 0x19, 0x00, 0x00, 0x00, 0x13, 0x00, 0x00, 0x00, 
  0x12, 0x00, 0x00, 0x00, 0x00, 0x00, 0x0e, 0x00, 0x1a, 0x00, 0x14, 0x00, 
  0x10, 0x00, 0x0c, 0x00, 0x0b, 0x00, 0x04, 0x00, 0x0e, 0x00, 0x00, 0x00, 
  0x24, 0x00, 0x00, 0x00, 0x00, 0x00, 0x00, 0x02, 0x30, 0x00, 0x00, 0x00, 
  0x34, 0x00, 0x00, 0x00, 0x01, 0x00, 0x00, 0x00, 0x00, 0x00, 0x0e, 0x00, 
  0x14, 0x00, 0x00, 0x00, 0x10, 0x00, 0x0c, 0x00, 0x08, 0x00, 0x07, 0x00, 
  0x0e, 0x00, 0x00, 0x00, 0x00, 0x00, 0x00, 0x01, 0x01, 0x00, 0x00, 0x00, 
  0x02, 0x00, 0x00, 0x00, 0x02, 0x00, 0x00, 0x00, 0x01, 0x00, 0x00, 0x00, 
  0x19, 0x00, 0x00, 0x00, 0x03, 0x00, 0x00, 0x00, 0x18, 0x00, 0x00, 0x00, 
  0x15, 0x00, 0x00, 0x00, 0x14, 0x00, 0x00, 0x00, 0x00, 0x00, 0x0e, 0x00, 
  0x14, 0x00, 0x00, 0x00, 0x10, 0x00, 0x0c, 0x00, 0x0b, 0x00, 0x04, 0x00, 
  0x0e, 0x00, 0x00, 0x00, 0x1c, 0x00, 0x00, 0x00, 0x00, 0x00, 0x00, 0x01, 
  0x24, 0x00, 0x00, 0x00, 0x28, 0x00, 0x00, 0x00, 0x0c, 0x00, 0x10, 0x00, 
  0x00, 0x00, 0x0c, 0x00, 0x08, 0x00, 0x07, 0x00, 0x0c, 0x00, 0x00, 0x00, 
  0x00, 0x00, 0x00, 0x01, 0x01, 0x00, 0x00, 0x00, 0x01, 0x00, 0x00, 0x00, 
  0x01, 0x00, 0x00, 0x00, 0x18, 0x00, 0x00, 0x00, 0x03, 0x00, 0x00, 0x00, 
  0x00, 0x00, 0x00, 0x00, 0x17, 0x00, 0x00, 0x00, 0x16, 0x00, 0x00, 0x00, 
  0x01, 0x00, 0x00, 0x00, 0x24, 0x00, 0x00, 0x00, 0x01, 0x00, 0x00, 0x00, 
  0x00, 0x00, 0x00, 0x00, 0x25, 0x00, 0x00, 0x00, 0x90, 0x36, 0x00, 0x00, 
  0x34, 0x36, 0x00, 0x00, 0x4c, 0x35, 0x00, 0x00, 0x78, 0x34, 0x00, 0x00, 
  0x24, 0x31, 0x00, 0x00, 0xc8, 0x2d, 0x00, 0x00, 0x74, 0x2a, 0x00, 0x00, 
  0x10, 0x27, 0x00, 0x00, 0x7c, 0x24, 0x00, 0x00, 0xc0, 0x21, 0x00, 0x00, 
  0x2c, 0x1f, 0x00, 0x00, 0x88, 0x1c, 0x00, 0x00, 0xb4, 0x1a, 0x00, 0x00, 
  0xcc, 0x18, 0x00, 0x00, 0xf4, 0x16, 0x00, 0x00, 0x10, 0x15, 0x00, 0x00, 
  0x9c, 0x13, 0x00, 0x00, 0x14, 0x12, 0x00, 0x00, 0x9c, 0x10, 0x00, 0x00, 
  0x18, 0x0f, 0x00, 0x00, 0x04, 0x0e, 0x00, 0x00, 0xdc, 0x0c, 0x00, 0x00, 
  0xc4, 0x0b, 0x00, 0x00, 0xa0, 0x0a, 0x00, 0x00, 0xcc, 0x09, 0x00, 0x00, 
  0xd8, 0x08, 0x00, 0x00, 0xdc, 0x07, 0x00, 0x00, 0xe8, 0x06, 0x00, 0x00, 
  0x0c, 0x06, 0x00, 0x00, 0x18, 0x05, 0x00, 0x00, 0x3c, 0x04, 0x00, 0x00, 
  0x48, 0x03, 0x00, 0x00, 0x6c, 0x02, 0x00, 0x00, 0xd0, 0x01, 0x00, 0x00, 
  0x3c, 0x01, 0x00, 0x00, 0x80, 0x00, 0x00, 0x00, 0x04, 0x00, 0x00, 0x00, 
  0x1a, 0xca, 0xff, 0xff, 0x00, 0x00, 0x00, 0x01, 0x18, 0x00, 0x00, 0x00, 
  0x20, 0x00, 0x00, 0x00, 0x3c, 0x00, 0x00, 0x00, 0x25, 0x00, 0x00, 0x00, 
  0x00, 0x00, 0x00, 0x09, 0x50, 0x00, 0x00, 0x00, 0x02, 0x00, 0x00, 0x00, 
  0xff, 0xff, 0xff, 0xff, 0x0a, 0x00, 0x00, 0x00, 0xfc, 0xc9, 0xff, 0xff, 
  0x08, 0x00, 0x00, 0x00, 0x10, 0x00, 0x00, 0x00, 0x01, 0x00, 0x00, 0x00, 
  0xd4, 0xff, 0xff, 0xff, 0xff, 0xff, 0xff, 0xff, 0x01, 0x00, 0x00, 0x00, 
  0x5e, 0x5b, 0x4e, 0x3d, 0x1b, 0x00, 0x00, 0x00, 0x53, 0x74, 0x61, 0x74, 
  0x65, 0x66, 0x75, 0x6c, 0x50, 0x61, 0x72, 0x74, 0x69, 0x74, 0x69, 0x6f, 
  0x6e, 0x65, 0x64, 0x43, 0x61, 0x6c, 0x6c, 0x5f, 0x31, 0x3a, 0x30, 0x00, 
  0x02, 0x00, 0x00, 0x00, 0x01, 0x00, 0x00, 0x00, 0x0a, 0x00, 0x00, 0x00, 
  0x92, 0xca, 0xff, 0xff, 0x00, 0x00, 0x00, 0x01, 0x18, 0x00, 0x00, 0x00, 
  0x20, 0x00, 0x00, 0x00, 0x40, 0x00, 0x00, 0x00, 0x24, 0x00, 0x00, 0x00, 
  0x00, 0x00, 0x00, 0x09, 0x90, 0x00, 0x00, 0x00, 0x02, 0x00, 0x00, 0x00, 
  0xff, 0xff, 0xff, 0xff, 0x40, 0x00, 0x00, 0x00, 0x74, 0xca, 0xff, 0xff, 
  0x08, 0x00, 0x00, 0x00, 0x14, 0x00, 0x00, 0x00, 0x01, 0x00, 0x00, 0x00, 
  0x80, 0xff, 0xff, 0xff, 0xff, 0xff, 0xff, 0xff, 0x00, 0x00, 0x00, 0x00, 
  0x01, 0x00, 0x00, 0x00, 0xa0, 0x1c, 0x34, 0x3d, 0x57, 0x00, 0x00, 0x00, 
  0x73, 0x74, 0x75, 0x64, 0x65, 0x6e, 0x74, 0x5f, 0x73, 0x6d, 0x61, 0x6c, 
  0x6c, 0x5f, 0x31, 0x2f, 0x64, 0x65, 0x6e, 0x73, 0x65, 0x5f, 0x31, 0x2f, 
  0x4d, 0x61, 0x74, 0x4d, 0x75, 0x6c, 0x3b, 0x73, 0x74, 0x75, 0x64, 0x65, 
  0x6e, 0x74, 0x5f, 0x73, 0x6d, 0x61, 0x6c, 0x6c, 0x5f, 0x31, 0x2f, 0x64, 
  0x65, 0x6e, 0x73, 0x65, 0x5f, 0x31, 0x2f, 0x52, 0x65, 0x6c, 0x75, 0x3b, 
  0x73, 0x74, 0x75, 0x64, 0x65, 0x6e, 0x74, 0x5f, 0x73, 0x6d, 0x61, 0x6c, 
  0x6c, 0x5f, 0x31, 0x2f, 0x64, 0x65, 0x6e, 0x73, 0x65, 0x5f, 0x31, 0x2f, 
